{
  "version": "1.0",
  "truncation": {
    "direction": "Right",
    "max_length": 500,
    "strategy": "LongestFirst",
    "stride": 0
  },
  "padding": {
    "strategy": {
      "Fixed": 500
    },
    "direction": "Right",
    "pad_to_multiple_of": null,
    "pad_id": 9,
    "pad_type_id": 0,
    "pad_token": "<pad>"
  },
  "added_tokens": [
    {
      "id": 0,
      "content": "<UNK>",
      "single_word": false,
      "lstrip": false,
      "rstrip": false,
      "normalized": false,
      "special": true
    },
    {
      "id": 1,
      "content": "<code_small>",
      "single_word": false,
      "lstrip": false,
      "rstrip": false,
      "normalized": false,
      "special": true
    },
    {
      "id": 2,
      "content": "<url>",
      "single_word": false,
      "lstrip": false,
      "rstrip": false,
      "normalized": false,
      "special": true
    },
    {
      "id": 3,
      "content": "<table>",
      "single_word": false,
      "lstrip": false,
      "rstrip": false,
      "normalized": false,
      "special": true
    },
    {
      "id": 4,
      "content": "<line_sep>",
      "single_word": false,
      "lstrip": false,
      "rstrip": false,
      "normalized": false,
      "special": true
    },
    {
      "id": 5,
      "content": "<requirement>",
      "single_word": false,
      "lstrip": false,
      "rstrip": false,
      "normalized": false,
      "special": true
    },
    {
      "id": 6,
      "content": "<code_large>",
      "single_word": false,
      "lstrip": false,
      "rstrip": false,
      "normalized": false,
      "special": true
    },
    {
      "id": 7,
      "content": "<sos>",
      "single_word": false,
      "lstrip": false,
      "rstrip": false,
      "normalized": false,
      "special": true
    },
    {
      "id": 8,
      "content": "<eos>",
      "single_word": false,
      "lstrip": false,
      "rstrip": false,
      "normalized": false,
      "special": true
    },
    {
      "id": 9,
      "content": "<pad>",
      "single_word": false,
      "lstrip": false,
      "rstrip": false,
      "normalized": false,
      "special": true
    }
  ],
  "normalizer": null,
  "pre_tokenizer": {
    "type": "Whitespace"
  },
  "post_processor": {
    "type": "TemplateProcessing",
    "single": [
      {
        "SpecialToken": {
          "id": "<sos>",
          "type_id": 0
        }
      },
      {
        "Sequence": {
          "id": "A",
          "type_id": 0
        }
      },
      {
        "SpecialToken": {
          "id": "<eos>",
          "type_id": 0
        }
      }
    ],
    "pair": [
      {
        "Sequence": {
          "id": "A",
          "type_id": 0
        }
      },
      {
        "Sequence": {
          "id": "B",
          "type_id": 1
        }
      }
    ],
    "special_tokens": {
      "<eos>": {
        "id": "<eos>",
        "ids": [
          8
        ],
        "tokens": [
          "<eos>"
        ]
      },
      "<sos>": {
        "id": "<sos>",
        "ids": [
          7
        ],
        "tokens": [
          "<sos>"
        ]
      }
    }
  },
  "decoder": null,
  "model": {
    "type": "WordPiece",
    "unk_token": "<UNK>",
    "continuing_subword_prefix": "##",
    "max_input_chars_per_word": 100,
    "vocab": {
      "<UNK>": 0,
      "<code_small>": 1,
      "<url>": 2,
      "<table>": 3,
      "<line_sep>": 4,
      "<requirement>": 5,
      "<code_large>": 6,
      "<sos>": 7,
      "<eos>": 8,
      "<pad>": 9,
      "!": 10,
      "\"": 11,
      "#": 12,
      "$": 13,
      "%": 14,
      "&": 15,
      "'": 16,
      "(": 17,
      ")": 18,
      "*": 19,
      "+": 20,
      ",": 21,
      "-": 22,
      ".": 23,
      "/": 24,
      "0": 25,
      "1": 26,
      "2": 27,
      "3": 28,
      "4": 29,
      "5": 30,
      "6": 31,
      "7": 32,
      "8": 33,
      "9": 34,
      ":": 35,
      ";": 36,
      "<": 37,
      "=": 38,
      ">": 39,
      "?": 40,
      "@": 41,
      "A": 42,
      "B": 43,
      "C": 44,
      "D": 45,
      "E": 46,
      "F": 47,
      "G": 48,
      "H": 49,
      "I": 50,
      "J": 51,
      "K": 52,
      "L": 53,
      "M": 54,
      "N": 55,
      "O": 56,
      "P": 57,
      "Q": 58,
      "R": 59,
      "S": 60,
      "T": 61,
      "U": 62,
      "V": 63,
      "W": 64,
      "X": 65,
      "Y": 66,
      "Z": 67,
      "[": 68,
      "\\": 69,
      "]": 70,
      "^": 71,
      "_": 72,
      "a": 73,
      "b": 74,
      "c": 75,
      "d": 76,
      "e": 77,
      "f": 78,
      "g": 79,
      "h": 80,
      "i": 81,
      "j": 82,
      "k": 83,
      "l": 84,
      "m": 85,
      "n": 86,
      "o": 87,
      "p": 88,
      "q": 89,
      "r": 90,
      "s": 91,
      "t": 92,
      "u": 93,
      "v": 94,
      "w": 95,
      "x": 96,
      "y": 97,
      "z": 98,
      "{": 99,
      "|": 100,
      "}": 101,
      "~": 102,
      "": 103,
      "": 104,
      "": 105,
      "": 106,
      "¡": 107,
      "¢": 108,
      "£": 109,
      "¥": 110,
      "§": 111,
      "©": 112,
      "«": 113,
      "¬": 114,
      "­": 115,
      "®": 116,
      "°": 117,
      "±": 118,
      "¶": 119,
      "·": 120,
      "»": 121,
      "¿": 122,
      "Æ": 123,
      "Ð": 124,
      "×": 125,
      "Ø": 126,
      "Þ": 127,
      "ß": 128,
      "æ": 129,
      "ð": 130,
      "÷": 131,
      "ø": 132,
      "þ": 133,
      "Đ": 134,
      "đ": 135,
      "Ħ": 136,
      "ħ": 137,
      "ı": 138,
      "Ł": 139,
      "ł": 140,
      "ŋ": 141,
      "Œ": 142,
      "œ": 143,
      "ŧ": 144,
      "Ɔ": 145,
      "Ǝ": 146,
      "Ə": 147,
      "Ɛ": 148,
      "ǀ": 149,
      "ǁ": 150,
      "ǂ": 151,
      "ǃ": 152,
      "ǝ": 153,
      "ȡ": 154,
      "ȴ": 155,
      "ȵ": 156,
      "ȶ": 157,
      "ȷ": 158,
      "ɐ": 159,
      "ɑ": 160,
      "ɒ": 161,
      "ɔ": 162,
      "ɕ": 163,
      "ɖ": 164,
      "ɗ": 165,
      "ə": 166,
      "ɛ": 167,
      "ɜ": 168,
      "ɟ": 169,
      "ɡ": 170,
      "ɣ": 171,
      "ɤ": 172,
      "ɦ": 173,
      "ɧ": 174,
      "ɨ": 175,
      "ɪ": 176,
      "ɬ": 177,
      "ɮ": 178,
      "ɯ": 179,
      "ɰ": 180,
      "ɲ": 181,
      "ɳ": 182,
      "ɴ": 183,
      "ɵ": 184,
      "ɸ": 185,
      "ɹ": 186,
      "ɺ": 187,
      "ɽ": 188,
      "ɾ": 189,
      "ʀ": 190,
      "ʁ": 191,
      "ʂ": 192,
      "ʃ": 193,
      "ʈ": 194,
      "ʉ": 195,
      "ʊ": 196,
      "ʋ": 197,
      "ʌ": 198,
      "ʎ": 199,
      "ʏ": 200,
      "ʑ": 201,
      "ʒ": 202,
      "ʔ": 203,
      "ʕ": 204,
      "ʙ": 205,
      "ʤ": 206,
      "ʦ": 207,
      "ʧ": 208,
      "ʹ": 209,
      "ʻ": 210,
      "ʼ": 211,
      "ʽ": 212,
      "ʾ": 213,
      "ʿ": 214,
      "ˆ": 215,
      "ˈ": 216,
      "ˌ": 217,
      "ː": 218,
      "˥": 219,
      "˦": 220,
      "˧": 221,
      "˨": 222,
      "˩": 223,
      "̀": 224,
      "́": 225,
      "̂": 226,
      "̃": 227,
      "̄": 228,
      "̆": 229,
      "̇": 230,
      "̈": 231,
      "̉": 232,
      "̊": 233,
      "̋": 234,
      "̌": 235,
      "̍": 236,
      "̐": 237,
      "̓": 238,
      "̔": 239,
      "̛": 240,
      "̝": 241,
      "̞": 242,
      "̠": 243,
      "̣": 244,
      "̤": 245,
      "̥": 246,
      "̦": 247,
      "̧": 248,
      "̨": 249,
      "̩": 250,
      "̪": 251,
      "̭": 252,
      "̮": 253,
      "̯": 254,
      "̰": 255,
      "̱": 256,
      "̲": 257,
      "̴": 258,
      "̵": 259,
      "̸": 260,
      "̻": 261,
      "͂": 262,
      "ͅ": 263,
      "͍": 264,
      "͗": 265,
      "͘": 266,
      "͠": 267,
      "͡": 268,
      "Α": 269,
      "Β": 270,
      "Γ": 271,
      "Δ": 272,
      "Ε": 273,
      "Ζ": 274,
      "Η": 275,
      "Θ": 276,
      "Ι": 277,
      "Κ": 278,
      "Λ": 279,
      "Μ": 280,
      "Ν": 281,
      "Ξ": 282,
      "Ο": 283,
      "Π": 284,
      "Ρ": 285,
      "Σ": 286,
      "Τ": 287,
      "Υ": 288,
      "Φ": 289,
      "Χ": 290,
      "Ψ": 291,
      "Ω": 292,
      "α": 293,
      "β": 294,
      "γ": 295,
      "δ": 296,
      "ε": 297,
      "ζ": 298,
      "η": 299,
      "θ": 300,
      "ι": 301,
      "κ": 302,
      "λ": 303,
      "μ": 304,
      "ν": 305,
      "ξ": 306,
      "ο": 307,
      "π": 308,
      "ρ": 309,
      "ς": 310,
      "σ": 311,
      "τ": 312,
      "υ": 313,
      "φ": 314,
      "χ": 315,
      "ψ": 316,
      "ω": 317,
      "Ϛ": 318,
      "ϛ": 319,
      "Ϝ": 320,
      "ϝ": 321,
      "ϟ": 322,
      "ϩ": 323,
      "Ϸ": 324,
      "ϸ": 325,
      "Ϻ": 326,
      "ϻ": 327,
      "Ђ": 328,
      "Є": 329,
      "І": 330,
      "Ј": 331,
      "Љ": 332,
      "Њ": 333,
      "Џ": 334,
      "А": 335,
      "Б": 336,
      "В": 337,
      "Г": 338,
      "Д": 339,
      "Е": 340,
      "Ж": 341,
      "З": 342,
      "И": 343,
      "К": 344,
      "Л": 345,
      "М": 346,
      "Н": 347,
      "О": 348,
      "П": 349,
      "Р": 350,
      "С": 351,
      "Т": 352,
      "У": 353,
      "Ф": 354,
      "Х": 355,
      "Ц": 356,
      "Ч": 357,
      "Ш": 358,
      "Щ": 359,
      "Ъ": 360,
      "Ь": 361,
      "Э": 362,
      "Ю": 363,
      "Я": 364,
      "а": 365,
      "б": 366,
      "в": 367,
      "г": 368,
      "д": 369,
      "е": 370,
      "ж": 371,
      "з": 372,
      "и": 373,
      "к": 374,
      "л": 375,
      "м": 376,
      "н": 377,
      "о": 378,
      "п": 379,
      "р": 380,
      "с": 381,
      "т": 382,
      "у": 383,
      "ф": 384,
      "х": 385,
      "ц": 386,
      "ч": 387,
      "ш": 388,
      "щ": 389,
      "ъ": 390,
      "ы": 391,
      "ь": 392,
      "э": 393,
      "ю": 394,
      "я": 395,
      "ђ": 396,
      "є": 397,
      "і": 398,
      "ј": 399,
      "љ": 400,
      "њ": 401,
      "ћ": 402,
      "џ": 403,
      "Ҁ": 404,
      "ҍ": 405,
      "Ґ": 406,
      "ґ": 407,
      "Қ": 408,
      "қ": 409,
      "Ҝ": 410,
      "ҝ": 411,
      "ң": 412,
      "Ҫ": 413,
      "ү": 414,
      "ұ": 415,
      "Ҹ": 416,
      "ӈ": 417,
      "ә": 418,
      "Ө": 419,
      "ө": 420,
      "Ա": 421,
      "Բ": 422,
      "Գ": 423,
      "Դ": 424,
      "Է": 425,
      "Ժ": 426,
      "Լ": 427,
      "Խ": 428,
      "Ծ": 429,
      "Կ": 430,
      "Հ": 431,
      "Ղ": 432,
      "Ճ": 433,
      "Մ": 434,
      "Յ": 435,
      "Ն": 436,
      "Շ": 437,
      "Ո": 438,
      "Չ": 439,
      "Պ": 440,
      "Ջ": 441,
      "Ռ": 442,
      "Ս": 443,
      "Վ": 444,
      "Տ": 445,
      "Ց": 446,
      "Փ": 447,
      "Ֆ": 448,
      "ա": 449,
      "բ": 450,
      "գ": 451,
      "դ": 452,
      "ե": 453,
      "զ": 454,
      "է": 455,
      "թ": 456,
      "ժ": 457,
      "ի": 458,
      "լ": 459,
      "խ": 460,
      "ծ": 461,
      "կ": 462,
      "հ": 463,
      "ձ": 464,
      "ղ": 465,
      "ճ": 466,
      "մ": 467,
      "յ": 468,
      "ն": 469,
      "շ": 470,
      "ո": 471,
      "չ": 472,
      "պ": 473,
      "ջ": 474,
      "ռ": 475,
      "ս": 476,
      "վ": 477,
      "տ": 478,
      "ր": 479,
      "ց": 480,
      "ւ": 481,
      "փ": 482,
      "ք": 483,
      "օ": 484,
      "ֆ": 485,
      "֏": 486,
      "ְ": 487,
      "ֱ": 488,
      "ֲ": 489,
      "ִ": 490,
      "ֵ": 491,
      "ֶ": 492,
      "ַ": 493,
      "ָ": 494,
      "ֹ": 495,
      "ֻ": 496,
      "ּ": 497,
      "ֽ": 498,
      "־": 499,
      "ֿ": 500,
      "ׁ": 501,
      "ׂ": 502,
      "א": 503,
      "ב": 504,
      "ג": 505,
      "ד": 506,
      "ה": 507,
      "ו": 508,
      "ז": 509,
      "ח": 510,
      "ט": 511,
      "י": 512,
      "ך": 513,
      "כ": 514,
      "ל": 515,
      "ם": 516,
      "מ": 517,
      "ן": 518,
      "נ": 519,
      "ס": 520,
      "ע": 521,
      "ף": 522,
      "פ": 523,
      "ץ": 524,
      "צ": 525,
      "ק": 526,
      "ר": 527,
      "ש": 528,
      "ת": 529,
      "׳": 530,
      "״": 531,
      "ء": 532,
      "ا": 533,
      "ب": 534,
      "ة": 535,
      "ت": 536,
      "ث": 537,
      "ج": 538,
      "ح": 539,
      "خ": 540,
      "د": 541,
      "ذ": 542,
      "ر": 543,
      "ز": 544,
      "س": 545,
      "ش": 546,
      "ص": 547,
      "ض": 548,
      "ط": 549,
      "ظ": 550,
      "ع": 551,
      "غ": 552,
      "ـ": 553,
      "ف": 554,
      "ق": 555,
      "ك": 556,
      "ل": 557,
      "م": 558,
      "ن": 559,
      "ه": 560,
      "و": 561,
      "ى": 562,
      "ي": 563,
      "ً": 564,
      "ٌ": 565,
      "َ": 566,
      "ُ": 567,
      "ِ": 568,
      "ّ": 569,
      "ْ": 570,
      "ٓ": 571,
      "ٔ": 572,
      "ٕ": 573,
      "ٱ": 574,
      "ٹ": 575,
      "ٽ": 576,
      "پ": 577,
      "ٿ": 578,
      "ڄ": 579,
      "چ": 580,
      "ڈ": 581,
      "ډ": 582,
      "ڊ": 583,
      "ڌ": 584,
      "ڍ": 585,
      "ڏ": 586,
      "ڑ": 587,
      "ڒ": 588,
      "ړ": 589,
      "ڕ": 590,
      "ږ": 591,
      "ژ": 592,
      "ڠ": 593,
      "ڤ": 594,
      "ک": 595,
      "ڪ": 596,
      "ګ": 597,
      "ڭ": 598,
      "گ": 599,
      "ڵ": 600,
      "ں": 601,
      "ڻ": 602,
      "ھ": 603,
      "ہ": 604,
      "ۆ": 605,
      "ۉ": 606,
      "ۋ": 607,
      "ی": 608,
      "ۍ": 609,
      "ێ": 610,
      "ې": 611,
      "ے": 612,
      "ە": 613,
      "۞": 614,
      "ܐ": 615,
      "ܒ": 616,
      "ܕ": 617,
      "ܗ": 618,
      "ܘ": 619,
      "ܙ": 620,
      "ܚ": 621,
      "ܝ": 622,
      "ܟ": 623,
      "ܠ": 624,
      "ܣ": 625,
      "ܥ": 626,
      "ܪ": 627,
      "ܫ": 628,
      "ܬ": 629,
      "ݐ": 630,
      "ݘ": 631,
      "ݩ": 632,
      "ކ": 633,
      "މ": 634,
      "ލ": 635,
      "ަ": 636,
      "ާ": 637,
      "ި": 638,
      "ު": 639,
      "ެ": 640,
      "ं": 641,
      "ः": 642,
      "अ": 643,
      "आ": 644,
      "इ": 645,
      "ई": 646,
      "उ": 647,
      "ए": 648,
      "क": 649,
      "ख": 650,
      "ग": 651,
      "घ": 652,
      "ङ": 653,
      "च": 654,
      "ज": 655,
      "झ": 656,
      "ञ": 657,
      "ट": 658,
      "ठ": 659,
      "ड": 660,
      "ण": 661,
      "त": 662,
      "थ": 663,
      "द": 664,
      "ध": 665,
      "न": 666,
      "प": 667,
      "फ": 668,
      "ब": 669,
      "भ": 670,
      "म": 671,
      "य": 672,
      "र": 673,
      "ल": 674,
      "व": 675,
      "श": 676,
      "ष": 677,
      "स": 678,
      "ह": 679,
      "़": 680,
      "ा": 681,
      "ि": 682,
      "ी": 683,
      "ु": 684,
      "ू": 685,
      "ृ": 686,
      "े": 687,
      "ै": 688,
      "ो": 689,
      "ौ": 690,
      "्": 691,
      "ঁ": 692,
      "ং": 693,
      "অ": 694,
      "আ": 695,
      "ই": 696,
      "উ": 697,
      "ও": 698,
      "ক": 699,
      "খ": 700,
      "গ": 701,
      "ঙ": 702,
      "চ": 703,
      "ছ": 704,
      "জ": 705,
      "ঞ": 706,
      "ট": 707,
      "ড": 708,
      "ঢ": 709,
      "ণ": 710,
      "ত": 711,
      "থ": 712,
      "দ": 713,
      "ধ": 714,
      "ন": 715,
      "প": 716,
      "ফ": 717,
      "ব": 718,
      "ভ": 719,
      "ম": 720,
      "য": 721,
      "র": 722,
      "ল": 723,
      "শ": 724,
      "ষ": 725,
      "স": 726,
      "হ": 727,
      "়": 728,
      "া": 729,
      "ি": 730,
      "ী": 731,
      "ু": 732,
      "ূ": 733,
      "ৃ": 734,
      "ে": 735,
      "্": 736,
      "ৗ": 737,
      "ਅ": 738,
      "ਈ": 739,
      "ਕ": 740,
      "ਖ": 741,
      "ਗ": 742,
      "ਘ": 743,
      "ਛ": 744,
      "ਜ": 745,
      "ਝ": 746,
      "ਟ": 747,
      "ਤ": 748,
      "ਥ": 749,
      "ਦ": 750,
      "ਨ": 751,
      "ਪ": 752,
      "ਫ": 753,
      "ਬ": 754,
      "ਮ": 755,
      "ਯ": 756,
      "ਰ": 757,
      "ਲ": 758,
      "ਵ": 759,
      "ਸ": 760,
      "ਹ": 761,
      "਼": 762,
      "ਾ": 763,
      "ਿ": 764,
      "ੀ": 765,
      "ੁ": 766,
      "ੂ": 767,
      "ੇ": 768,
      "ੋ": 769,
      "੍": 770,
      "ੜ": 771,
      "ੰ": 772,
      "ં": 773,
      "ક": 774,
      "ગ": 775,
      "ચ": 776,
      "છ": 777,
      "જ": 778,
      "ટ": 779,
      "ડ": 780,
      "દ": 781,
      "પ": 782,
      "બ": 783,
      "ર": 784,
      "લ": 785,
      "વ": 786,
      "ા": 787,
      "િ": 788,
      "ી": 789,
      "ુ": 790,
      "ે": 791,
      "ો": 792,
      "્": 793,
      "ଆ": 794,
      "ଓ": 795,
      "ଡ": 796,
      "଼": 797,
      "ି": 798,
      "ஃ": 799,
      "அ": 800,
      "உ": 801,
      "ஊ": 802,
      "ஐ": 803,
      "க": 804,
      "ங": 805,
      "ச": 806,
      "ஜ": 807,
      "ஞ": 808,
      "ட": 809,
      "ண": 810,
      "த": 811,
      "ந": 812,
      "ன": 813,
      "ப": 814,
      "ம": 815,
      "ய": 816,
      "ர": 817,
      "ற": 818,
      "ல": 819,
      "ள": 820,
      "ழ": 821,
      "வ": 822,
      "ஸ": 823,
      "ா": 824,
      "ி": 825,
      "ீ": 826,
      "ு": 827,
      "ூ": 828,
      "ெ": 829,
      "ே": 830,
      "ை": 831,
      "்": 832,
      "ం": 833,
      "ఆ": 834,
      "క": 835,
      "జ": 836,
      "ణ": 837,
      "త": 838,
      "ద": 839,
      "ధ": 840,
      "న": 841,
      "భ": 842,
      "మ": 843,
      "ర": 844,
      "వ": 845,
      "స": 846,
      "ా": 847,
      "ి": 848,
      "ు": 849,
      "ూ": 850,
      "ో": 851,
      "్": 852,
      "ಂ": 853,
      "ಅ": 854,
      "ಉ": 855,
      "ಕ": 856,
      "ಗ": 857,
      "ಚ": 858,
      "ಜ": 859,
      "ಟ": 860,
      "ಡ": 861,
      "ಣ": 862,
      "ತ": 863,
      "ನ": 864,
      "ಪ": 865,
      "ಬ": 866,
      "ಭ": 867,
      "ಮ": 868,
      "ಯ": 869,
      "ರ": 870,
      "ಲ": 871,
      "ಳ": 872,
      "ವ": 873,
      "ಶ": 874,
      "ಸ": 875,
      "ಹ": 876,
      "ಾ": 877,
      "ಿ": 878,
      "ು": 879,
      "ೂ": 880,
      "ೆ": 881,
      "್": 882,
      "ೕ": 883,
      "ೖ": 884,
      "ം": 885,
      "അ": 886,
      "ഉ": 887,
      "ഐ": 888,
      "ക": 889,
      "ഗ": 890,
      "ച": 891,
      "ഞ": 892,
      "ണ": 893,
      "ധ": 894,
      "ന": 895,
      "പ": 896,
      "ഭ": 897,
      "മ": 898,
      "യ": 899,
      "ര": 900,
      "ല": 901,
      "ള": 902,
      "വ": 903,
      "ശ": 904,
      "ഷ": 905,
      "സ": 906,
      "ാ": 907,
      "ി": 908,
      "ു": 909,
      "ൃ": 910,
      "േ": 911,
      "്": 912,
      "ං": 913,
      "අ": 914,
      "ක": 915,
      "ග": 916,
      "ඟ": 917,
      "ජ": 918,
      "ට": 919,
      "ඩ": 920,
      "ණ": 921,
      "ත": 922,
      "ද": 923,
      "ධ": 924,
      "න": 925,
      "ප": 926,
      "බ": 927,
      "භ": 928,
      "ම": 929,
      "ය": 930,
      "ර": 931,
      "ල": 932,
      "ව": 933,
      "ශ": 934,
      "ස": 935,
      "හ": 936,
      "ළ": 937,
      "්": 938,
      "ා": 939,
      "ි": 940,
      "ී": 941,
      "ු": 942,
      "ෙ": 943,
      "ก": 944,
      "ข": 945,
      "ค": 946,
      "ง": 947,
      "จ": 948,
      "ช": 949,
      "ณ": 950,
      "ด": 951,
      "ต": 952,
      "ถ": 953,
      "ท": 954,
      "ธ": 955,
      "น": 956,
      "บ": 957,
      "พ": 958,
      "ภ": 959,
      "ม": 960,
      "ย": 961,
      "ร": 962,
      "ล": 963,
      "ว": 964,
      "ศ": 965,
      "ส": 966,
      "ห": 967,
      "ฬ": 968,
      "อ": 969,
      "ะ": 970,
      "ั": 971,
      "า": 972,
      "ิ": 973,
      "ี": 974,
      "ื": 975,
      "ุ": 976,
      "ู": 977,
      "ฺ": 978,
      "เ": 979,
      "โ": 980,
      "ใ": 981,
      "ไ": 982,
      "่": 983,
      "้": 984,
      "์": 985,
      "ํ": 986,
      "ກ": 987,
      "ຊ": 988,
      "ດ": 989,
      "ຕ": 990,
      "ທ": 991,
      "ນ": 992,
      "ບ": 993,
      "ປ": 994,
      "ພ": 995,
      "ລ": 996,
      "ວ": 997,
      "ສ": 998,
      "ຫ": 999,
      "ອ": 1000,
      "ະ": 1001,
      "ັ": 1002,
      "າ": 1003,
      "ີ": 1004,
      "ຸ": 1005,
      "ູ": 1006,
      "ເ": 1007,
      "ແ": 1008,
      "ໄ": 1009,
      "່": 1010,
      "້": 1011,
      "ໍ": 1012,
      "་": 1013,
      "།": 1014,
      "ཀ": 1015,
      "ཁ": 1016,
      "ག": 1017,
      "ང": 1018,
      "ཅ": 1019,
      "ཆ": 1020,
      "ཇ": 1021,
      "ཐ": 1022,
      "ད": 1023,
      "ན": 1024,
      "པ": 1025,
      "ཕ": 1026,
      "བ": 1027,
      "མ": 1028,
      "ཙ": 1029,
      "ཚ": 1030,
      "ཟ": 1031,
      "འ": 1032,
      "ཡ": 1033,
      "ར": 1034,
      "ལ": 1035,
      "ས": 1036,
      "ི": 1037,
      "ུ": 1038,
      "ེ": 1039,
      "ོ": 1040,
      "ྐ": 1041,
      "ྒ": 1042,
      "ྗ": 1043,
      "ྟ": 1044,
      "ྣ": 1045,
      "ྨ": 1046,
      "ྩ": 1047,
      "ྱ": 1048,
      "ྲ": 1049,
      "ླ": 1050,
      "က": 1051,
      "ဂ": 1052,
      "င": 1053,
      "တ": 1054,
      "ထ": 1055,
      "န": 1056,
      "ပ": 1057,
      "ဖ": 1058,
      "ဗ": 1059,
      "ဘ": 1060,
      "မ": 1061,
      "ရ": 1062,
      "လ": 1063,
      "ဝ": 1064,
      "အ": 1065,
      "ာ": 1066,
      "ိ": 1067,
      "ီ": 1068,
      "ု": 1069,
      "ူ": 1070,
      "ေ": 1071,
      "ံ": 1072,
      "့": 1073,
      "း": 1074,
      "်": 1075,
      "ျ": 1076,
      "ြ": 1077,
      "ွ": 1078,
      "ှ": 1079,
      "Ⴄ": 1080,
      "Ⴕ": 1081,
      "ა": 1082,
      "ბ": 1083,
      "გ": 1084,
      "დ": 1085,
      "ე": 1086,
      "ვ": 1087,
      "ზ": 1088,
      "თ": 1089,
      "ი": 1090,
      "კ": 1091,
      "ლ": 1092,
      "მ": 1093,
      "ნ": 1094,
      "ო": 1095,
      "პ": 1096,
      "რ": 1097,
      "ს": 1098,
      "ტ": 1099,
      "უ": 1100,
      "ფ": 1101,
      "ქ": 1102,
      "ღ": 1103,
      "ყ": 1104,
      "შ": 1105,
      "ძ": 1106,
      "წ": 1107,
      "ჭ": 1108,
      "ხ": 1109,
      "ჯ": 1110,
      "ᄀ": 1111,
      "ᄁ": 1112,
      "ᄂ": 1113,
      "ᄃ": 1114,
      "ᄄ": 1115,
      "ᄅ": 1116,
      "ᄆ": 1117,
      "ᄇ": 1118,
      "ᄉ": 1119,
      "ᄊ": 1120,
      "ᄋ": 1121,
      "ᄌ": 1122,
      "ᄍ": 1123,
      "ᄎ": 1124,
      "ᄏ": 1125,
      "ᄐ": 1126,
      "ᄑ": 1127,
      "ᄒ": 1128,
      "ᅡ": 1129,
      "ᅢ": 1130,
      "ᅣ": 1131,
      "ᅥ": 1132,
      "ᅦ": 1133,
      "ᅧ": 1134,
      "ᅨ": 1135,
      "ᅩ": 1136,
      "ᅪ": 1137,
      "ᅫ": 1138,
      "ᅬ": 1139,
      "ᅭ": 1140,
      "ᅮ": 1141,
      "ᅯ": 1142,
      "ᅱ": 1143,
      "ᅲ": 1144,
      "ᅳ": 1145,
      "ᅴ": 1146,
      "ᅵ": 1147,
      "ᆨ": 1148,
      "ᆫ": 1149,
      "ᆭ": 1150,
      "ᆯ": 1151,
      "ᆷ": 1152,
      "ᆸ": 1153,
      "ᆺ": 1154,
      "ᆻ": 1155,
      "ᆼ": 1156,
      "ᆽ": 1157,
      "ᆾ": 1158,
      "ᇂ": 1159,
      "ህ": 1160,
      "ለ": 1161,
      "ሊ": 1162,
      "ላ": 1163,
      "ሌ": 1164,
      "ል": 1165,
      "መ": 1166,
      "ሙ": 1167,
      "ማ": 1168,
      "ረ": 1169,
      "ሪ": 1170,
      "ራ": 1171,
      "ር": 1172,
      "ሰ": 1173,
      "ሳ": 1174,
      "ስ": 1175,
      "ሾ": 1176,
      "ቂ": 1177,
      "ቃ": 1178,
      "ቅ": 1179,
      "ቡ": 1180,
      "ባ": 1181,
      "ብ": 1182,
      "ተ": 1183,
      "ቱ": 1184,
      "ታ": 1185,
      "ት": 1186,
      "ቸ": 1187,
      "ና": 1188,
      "ን": 1189,
      "አ": 1190,
      "ኢ": 1191,
      "ኣ": 1192,
      "ከ": 1193,
      "ኩ": 1194,
      "ክ": 1195,
      "ኮ": 1196,
      "ወ": 1197,
      "ው": 1198,
      "ዐ": 1199,
      "ዓ": 1200,
      "ዕ": 1201,
      "ዘ": 1202,
      "ዝ": 1203,
      "የ": 1204,
      "ያ": 1205,
      "ይ": 1206,
      "ዮ": 1207,
      "ደ": 1208,
      "ዲ": 1209,
      "ዳ": 1210,
      "ዴ": 1211,
      "ጊ": 1212,
      "ጌ": 1213,
      "ግ": 1214,
      "ጵ": 1215,
      "ፍ": 1216,
      "ក": 1217,
      "ខ": 1218,
      "ង": 1219,
      "ជ": 1220,
      "ត": 1221,
      "ទ": 1222,
      "ព": 1223,
      "ម": 1224,
      "ា": 1225,
      "ិ": 1226,
      "ុ": 1227,
      "េ": 1228,
      "់": 1229,
      "្": 1230,
      "ᠠ": 1231,
      "ᠡ": 1232,
      "ᠢ": 1233,
      "ᠥ": 1234,
      "ᠦ": 1235,
      "ᠨ": 1236,
      "ᠪ": 1237,
      "ᠬ": 1238,
      "ᠭ": 1239,
      "ᠮ": 1240,
      "ᠯ": 1241,
      "ᠰ": 1242,
      "ᠳ": 1243,
      "ᠵ": 1244,
      "ᠶ": 1245,
      "ᠷ": 1246,
      "ᡠ": 1247,
      "ᡤ": 1248,
      "ᡥ": 1249,
      "ᡳ": 1250,
      "ᬂ": 1251,
      "ᬃ": 1252,
      "ᬅ": 1253,
      "ᬕ": 1254,
      "ᬤ": 1255,
      "ᬦ": 1256,
      "ᬧ": 1257,
      "ᬲ": 1258,
      "ᬵ": 1259,
      "ᬸ": 1260,
      "ᬾ": 1261,
      "᭄": 1262,
      "᷆": 1263,
      "​": 1264,
      "‌": 1265,
      "‍": 1266,
      "‎": 1267,
      "‏": 1268,
      "‐": 1269,
      "‒": 1270,
      "–": 1271,
      "—": 1272,
      "―": 1273,
      "‘": 1274,
      "’": 1275,
      "‚": 1276,
      "“": 1277,
      "”": 1278,
      "„": 1279,
      "†": 1280,
      "‡": 1281,
      "•": 1282,
      "‬": 1283,
      "‰": 1284,
      "′": 1285,
      "⁄": 1286,
      "⁠": 1287,
      "₡": 1288,
      "₤": 1289,
      "₦": 1290,
      "₩": 1291,
      "₪": 1292,
      "€": 1293,
      "₹": 1294,
      "₺": 1295,
      "₼": 1296,
      "₽": 1297,
      "™": 1298,
      "℥": 1299,
      "ℹ": 1300,
      "←": 1301,
      "↑": 1302,
      "→": 1303,
      "↗": 1304,
      "↘": 1305,
      "↩": 1306,
      "⇒": 1307,
      "∀": 1308,
      "∂": 1309,
      "∃": 1310,
      "∅": 1311,
      "∆": 1312,
      "∇": 1313,
      "∈": 1314,
      "−": 1315,
      "√": 1316,
      "∞": 1317,
      "∩": 1318,
      "∪": 1319,
      "∴": 1320,
      "≈": 1321,
      "≔": 1322,
      "≡": 1323,
      "≤": 1324,
      "≥": 1325,
      "≪": 1326,
      "⊆": 1327,
      "⋅": 1328,
      "⌀": 1329,
      "⌬": 1330,
      "⏣": 1331,
      "⏱": 1332,
      "▄": 1333,
      "▶": 1334,
      "○": 1335,
      "★": 1336,
      "☆": 1337,
      "☍": 1338,
      "☤": 1339,
      "☺": 1340,
      "♀": 1341,
      "♂": 1342,
      "♄": 1343,
      "♈": 1344,
      "♊": 1345,
      "♋": 1346,
      "♌": 1347,
      "♒": 1348,
      "♓": 1349,
      "♖": 1350,
      "♗": 1351,
      "♘": 1352,
      "♙": 1353,
      "♜": 1354,
      "♝": 1355,
      "♞": 1356,
      "♟": 1357,
      "♠": 1358,
      "♥": 1359,
      "♩": 1360,
      "♪": 1361,
      "♭": 1362,
      "♮": 1363,
      "♯": 1364,
      "⚛": 1365,
      "⚠": 1366,
      "✌": 1367,
      "✍": 1368,
      "✔": 1369,
      "❗": 1370,
      "❤": 1371,
      "⟨": 1372,
      "⟩": 1373,
      "⬆": 1374,
      "ⲁ": 1375,
      "ⲓ": 1376,
      "ⲕ": 1377,
      "ⲙ": 1378,
      "ⲟ": 1379,
      "ⲣ": 1380,
      "Ⲫ": 1381,
      "ⲫ": 1382,
      "ⲱ": 1383,
      "ⴀ": 1384,
      "ⴈ": 1385,
      "ⴊ": 1386,
      "ⴌ": 1387,
      "ⴐ": 1388,
      "ⴒ": 1389,
      "ⴓ": 1390,
      "ⴰ": 1391,
      "ⴱ": 1392,
      "ⴳ": 1393,
      "ⴷ": 1394,
      "ⴻ": 1395,
      "ⴼ": 1396,
      "ⴽ": 1397,
      "ⵀ": 1398,
      "ⵄ": 1399,
      "ⵉ": 1400,
      "ⵍ": 1401,
      "ⵎ": 1402,
      "ⵏ": 1403,
      "ⵓ": 1404,
      "ⵔ": 1405,
      "ⵖ": 1406,
      "ⵙ": 1407,
      "ⵜ": 1408,
      "ⵡ": 1409,
      "ⵢ": 1410,
      "ⵣ": 1411,
      "⺮": 1412,
      "、": 1413,
      "。": 1414,
      "々": 1415,
      "〇": 1416,
      "〈": 1417,
      "〉": 1418,
      "《": 1419,
      "》": 1420,
      "「": 1421,
      "」": 1422,
      "『": 1423,
      "』": 1424,
      "〔": 1425,
      "〕": 1426,
      "〜": 1427,
      "あ": 1428,
      "い": 1429,
      "ぅ": 1430,
      "う": 1431,
      "え": 1432,
      "お": 1433,
      "か": 1434,
      "き": 1435,
      "く": 1436,
      "け": 1437,
      "こ": 1438,
      "さ": 1439,
      "し": 1440,
      "す": 1441,
      "せ": 1442,
      "そ": 1443,
      "た": 1444,
      "ち": 1445,
      "っ": 1446,
      "つ": 1447,
      "て": 1448,
      "と": 1449,
      "な": 1450,
      "に": 1451,
      "ぬ": 1452,
      "ね": 1453,
      "の": 1454,
      "は": 1455,
      "ひ": 1456,
      "ふ": 1457,
      "へ": 1458,
      "ほ": 1459,
      "ま": 1460,
      "み": 1461,
      "む": 1462,
      "め": 1463,
      "も": 1464,
      "ゃ": 1465,
      "や": 1466,
      "ゅ": 1467,
      "ゆ": 1468,
      "ょ": 1469,
      "よ": 1470,
      "ら": 1471,
      "り": 1472,
      "る": 1473,
      "れ": 1474,
      "ろ": 1475,
      "わ": 1476,
      "ゑ": 1477,
      "を": 1478,
      "ん": 1479,
      "゙": 1480,
      "゚": 1481,
      "ァ": 1482,
      "ア": 1483,
      "ィ": 1484,
      "イ": 1485,
      "ゥ": 1486,
      "ウ": 1487,
      "ェ": 1488,
      "エ": 1489,
      "ォ": 1490,
      "オ": 1491,
      "カ": 1492,
      "キ": 1493,
      "ク": 1494,
      "ケ": 1495,
      "コ": 1496,
      "サ": 1497,
      "シ": 1498,
      "ス": 1499,
      "セ": 1500,
      "ソ": 1501,
      "タ": 1502,
      "チ": 1503,
      "ッ": 1504,
      "ツ": 1505,
      "テ": 1506,
      "ト": 1507,
      "ナ": 1508,
      "ニ": 1509,
      "ヌ": 1510,
      "ネ": 1511,
      "ノ": 1512,
      "ハ": 1513,
      "ヒ": 1514,
      "フ": 1515,
      "ヘ": 1516,
      "ホ": 1517,
      "マ": 1518,
      "ミ": 1519,
      "ム": 1520,
      "メ": 1521,
      "モ": 1522,
      "ャ": 1523,
      "ヤ": 1524,
      "ュ": 1525,
      "ユ": 1526,
      "ョ": 1527,
      "ヨ": 1528,
      "ラ": 1529,
      "リ": 1530,
      "ル": 1531,
      "レ": 1532,
      "ロ": 1533,
      "ワ": 1534,
      "ヲ": 1535,
      "ン": 1536,
      "ヶ": 1537,
      "・": 1538,
      "ー": 1539,
      "一": 1540,
      "丁": 1541,
      "七": 1542,
      "万": 1543,
      "丈": 1544,
      "三": 1545,
      "上": 1546,
      "下": 1547,
      "不": 1548,
      "与": 1549,
      "世": 1550,
      "丘": 1551,
      "东": 1552,
      "丝": 1553,
      "並": 1554,
      "中": 1555,
      "丸": 1556,
      "丹": 1557,
      "为": 1558,
      "主": 1559,
      "丽": 1560,
      "乃": 1561,
      "久": 1562,
      "之": 1563,
      "乍": 1564,
      "乎": 1565,
      "乐": 1566,
      "乙": 1567,
      "九": 1568,
      "也": 1569,
      "乾": 1570,
      "亀": 1571,
      "予": 1572,
      "事": 1573,
      "二": 1574,
      "云": 1575,
      "五": 1576,
      "井": 1577,
      "亚": 1578,
      "亜": 1579,
      "亞": 1580,
      "交": 1581,
      "亥": 1582,
      "亦": 1583,
      "亨": 1584,
      "享": 1585,
      "京": 1586,
      "亭": 1587,
      "亮": 1588,
      "人": 1589,
      "什": 1590,
      "仁": 1591,
      "今": 1592,
      "介": 1593,
      "仏": 1594,
      "仑": 1595,
      "仔": 1596,
      "仕": 1597,
      "他": 1598,
      "付": 1599,
      "仙": 1600,
      "代": 1601,
      "令": 1602,
      "以": 1603,
      "仪": 1604,
      "仮": 1605,
      "仲": 1606,
      "件": 1607,
      "任": 1608,
      "伊": 1609,
      "伍": 1610,
      "伏": 1611,
      "伐": 1612,
      "休": 1613,
      "众": 1614,
      "会": 1615,
      "伝": 1616,
      "传": 1617,
      "伦": 1618,
      "伯": 1619,
      "伴": 1620,
      "伸": 1621,
      "伽": 1622,
      "但": 1623,
      "住": 1624,
      "佐": 1625,
      "佑": 1626,
      "体": 1627,
      "何": 1628,
      "佛": 1629,
      "作": 1630,
      "你": 1631,
      "佳": 1632,
      "使": 1633,
      "來": 1634,
      "例": 1635,
      "侍": 1636,
      "供": 1637,
      "侠": 1638,
      "侯": 1639,
      "便": 1640,
      "俊": 1641,
      "俗": 1642,
      "保": 1643,
      "信": 1644,
      "俣": 1645,
      "俭": 1646,
      "修": 1647,
      "倉": 1648,
      "個": 1649,
      "倍": 1650,
      "倖": 1651,
      "候": 1652,
      "借": 1653,
      "倫": 1654,
      "倭": 1655,
      "偉": 1656,
      "健": 1657,
      "偵": 1658,
      "傅": 1659,
      "傑": 1660,
      "備": 1661,
      "傣": 1662,
      "傳": 1663,
      "傷": 1664,
      "働": 1665,
      "僚": 1666,
      "儀": 1667,
      "儚": 1668,
      "優": 1669,
      "允": 1670,
      "元": 1671,
      "兄": 1672,
      "充": 1673,
      "先": 1674,
      "光": 1675,
      "克": 1676,
      "兌": 1677,
      "児": 1678,
      "党": 1679,
      "兜": 1680,
      "入": 1681,
      "全": 1682,
      "兪": 1683,
      "八": 1684,
      "公": 1685,
      "六": 1686,
      "兰": 1687,
      "共": 1688,
      "兴": 1689,
      "兵": 1690,
      "典": 1691,
      "养": 1692,
      "兼": 1693,
      "冂": 1694,
      "内": 1695,
      "円": 1696,
      "冉": 1697,
      "冑": 1698,
      "冒": 1699,
      "农": 1700,
      "冠": 1701,
      "冨": 1702,
      "决": 1703,
      "凌": 1704,
      "凤": 1705,
      "処": 1706,
      "凱": 1707,
      "出": 1708,
      "函": 1709,
      "刀": 1710,
      "分": 1711,
      "切": 1712,
      "刊": 1713,
      "划": 1714,
      "列": 1715,
      "刘": 1716,
      "初": 1717,
      "別": 1718,
      "利": 1719,
      "制": 1720,
      "券": 1721,
      "刺": 1722,
      "刻": 1723,
      "剅": 1724,
      "則": 1725,
      "前": 1726,
      "剛": 1727,
      "剣": 1728,
      "副": 1729,
      "劇": 1730,
      "劉": 1731,
      "力": 1732,
      "功": 1733,
      "加": 1734,
      "动": 1735,
      "助": 1736,
      "劳": 1737,
      "勇": 1738,
      "勉": 1739,
      "動": 1740,
      "務": 1741,
      "勝": 1742,
      "勞": 1743,
      "勢": 1744,
      "勲": 1745,
      "勳": 1746,
      "勸": 1747,
      "勾": 1748,
      "匂": 1749,
      "包": 1750,
      "化": 1751,
      "北": 1752,
      "匠": 1753,
      "匡": 1754,
      "匱": 1755,
      "匹": 1756,
      "区": 1757,
      "医": 1758,
      "區": 1759,
      "十": 1760,
      "千": 1761,
      "升": 1762,
      "卉": 1763,
      "半": 1764,
      "华": 1765,
      "协": 1766,
      "卓": 1767,
      "協": 1768,
      "南": 1769,
      "博": 1770,
      "卞": 1771,
      "占": 1772,
      "卯": 1773,
      "印": 1774,
      "历": 1775,
      "厚": 1776,
      "原": 1777,
      "厥": 1778,
      "厨": 1779,
      "厳": 1780,
      "去": 1781,
      "县": 1782,
      "参": 1783,
      "又": 1784,
      "叉": 1785,
      "友": 1786,
      "双": 1787,
      "反": 1788,
      "叔": 1789,
      "取": 1790,
      "受": 1791,
      "叟": 1792,
      "叡": 1793,
      "叢": 1794,
      "口": 1795,
      "古": 1796,
      "句": 1797,
      "可": 1798,
      "台": 1799,
      "史": 1800,
      "右": 1801,
      "号": 1802,
      "司": 1803,
      "各": 1804,
      "合": 1805,
      "吉": 1806,
      "同": 1807,
      "名": 1808,
      "后": 1809,
      "向": 1810,
      "君": 1811,
      "吳": 1812,
      "吴": 1813,
      "吹": 1814,
      "吾": 1815,
      "呂": 1816,
      "呉": 1817,
      "员": 1818,
      "周": 1819,
      "呪": 1820,
      "味": 1821,
      "命": 1822,
      "和": 1823,
      "咲": 1824,
      "哀": 1825,
      "品": 1826,
      "哈": 1827,
      "哉": 1828,
      "員": 1829,
      "哲": 1830,
      "唐": 1831,
      "商": 1832,
      "問": 1833,
      "啓": 1834,
      "善": 1835,
      "喆": 1836,
      "喜": 1837,
      "喝": 1838,
      "喬": 1839,
      "営": 1840,
      "嗚": 1841,
      "嗣": 1842,
      "嘉": 1843,
      "嘘": 1844,
      "噌": 1845,
      "器": 1846,
      "嚴": 1847,
      "囚": 1848,
      "四": 1849,
      "回": 1850,
      "因": 1851,
      "団": 1852,
      "囧": 1853,
      "园": 1854,
      "図": 1855,
      "国": 1856,
      "图": 1857,
      "圀": 1858,
      "國": 1859,
      "圏": 1860,
      "園": 1861,
      "圓": 1862,
      "土": 1863,
      "圣": 1864,
      "在": 1865,
      "圭": 1866,
      "地": 1867,
      "场": 1868,
      "坂": 1869,
      "均": 1870,
      "坊": 1871,
      "坐": 1872,
      "坤": 1873,
      "坪": 1874,
      "垂": 1875,
      "型": 1876,
      "垣": 1877,
      "埈": 1878,
      "城": 1879,
      "埜": 1880,
      "執": 1881,
      "培": 1882,
      "基": 1883,
      "埼": 1884,
      "堀": 1885,
      "堂": 1886,
      "堅": 1887,
      "堕": 1888,
      "堤": 1889,
      "報": 1890,
      "場": 1891,
      "堺": 1892,
      "塁": 1893,
      "塊": 1894,
      "塔": 1895,
      "塗": 1896,
      "塘": 1897,
      "塚": 1898,
      "塩": 1899,
      "増": 1900,
      "墜": 1901,
      "墳": 1902,
      "墾": 1903,
      "壁": 1904,
      "壇": 1905,
      "壤": 1906,
      "士": 1907,
      "壬": 1908,
      "壮": 1909,
      "声": 1910,
      "壱": 1911,
      "売": 1912,
      "壽": 1913,
      "夏": 1914,
      "外": 1915,
      "多": 1916,
      "夜": 1917,
      "夢": 1918,
      "大": 1919,
      "天": 1920,
      "太": 1921,
      "夫": 1922,
      "央": 1923,
      "失": 1924,
      "夷": 1925,
      "奄": 1926,
      "奇": 1927,
      "奈": 1928,
      "奉": 1929,
      "奎": 1930,
      "契": 1931,
      "套": 1932,
      "奥": 1933,
      "奧": 1934,
      "奨": 1935,
      "女": 1936,
      "好": 1937,
      "如": 1938,
      "妃": 1939,
      "妓": 1940,
      "妙": 1941,
      "妮": 1942,
      "妹": 1943,
      "妻": 1944,
      "姉": 1945,
      "始": 1946,
      "姚": 1947,
      "姜": 1948,
      "姦": 1949,
      "姫": 1950,
      "姬": 1951,
      "姸": 1952,
      "威": 1953,
      "娘": 1954,
      "娜": 1955,
      "娱": 1956,
      "婆": 1957,
      "媛": 1958,
      "嫌": 1959,
      "孁": 1960,
      "子": 1961,
      "字": 1962,
      "存": 1963,
      "孜": 1964,
      "孝": 1965,
      "学": 1966,
      "孫": 1967,
      "學": 1968,
      "宅": 1969,
      "宇": 1970,
      "守": 1971,
      "安": 1972,
      "宋": 1973,
      "完": 1974,
      "宏": 1975,
      "宓": 1976,
      "宗": 1977,
      "官": 1978,
      "宙": 1979,
      "定": 1980,
      "宝": 1981,
      "実": 1982,
      "宣": 1983,
      "室": 1984,
      "宮": 1985,
      "宰": 1986,
      "宴": 1987,
      "家": 1988,
      "容": 1989,
      "宿": 1990,
      "寄": 1991,
      "寅": 1992,
      "寇": 1993,
      "富": 1994,
      "寓": 1995,
      "寛": 1996,
      "實": 1997,
      "寧": 1998,
      "審": 1999,
      "寮": 2000,
      "寳": 2001,
      "寸": 2002,
      "寺": 2003,
      "対": 2004,
      "寿": 2005,
      "封": 2006,
      "射": 2007,
      "将": 2008,
      "將": 2009,
      "尊": 2010,
      "尋": 2011,
      "對": 2012,
      "小": 2013,
      "少": 2014,
      "尔": 2015,
      "尖": 2016,
      "尚": 2017,
      "就": 2018,
      "尹": 2019,
      "尺": 2020,
      "尻": 2021,
      "尼": 2022,
      "尾": 2023,
      "局": 2024,
      "居": 2025,
      "届": 2026,
      "屋": 2027,
      "展": 2028,
      "属": 2029,
      "屯": 2030,
      "山": 2031,
      "岐": 2032,
      "岑": 2033,
      "岛": 2034,
      "岡": 2035,
      "岩": 2036,
      "岭": 2037,
      "岱": 2038,
      "岳": 2039,
      "岸": 2040,
      "峡": 2041,
      "峨": 2042,
      "峰": 2043,
      "島": 2044,
      "峻": 2045,
      "崇": 2046,
      "崎": 2047,
      "崔": 2048,
      "崖": 2049,
      "崛": 2050,
      "嵐": 2051,
      "嵩": 2052,
      "嵯": 2053,
      "嶋": 2054,
      "嶺": 2055,
      "嶽": 2056,
      "巌": 2057,
      "川": 2058,
      "州": 2059,
      "巢": 2060,
      "工": 2061,
      "左": 2062,
      "巧": 2063,
      "巨": 2064,
      "巫": 2065,
      "差": 2066,
      "己": 2067,
      "巳": 2068,
      "巴": 2069,
      "巻": 2070,
      "市": 2071,
      "布": 2072,
      "帅": 2073,
      "帆": 2074,
      "师": 2075,
      "希": 2076,
      "帝": 2077,
      "带": 2078,
      "師": 2079,
      "帯": 2080,
      "帶": 2081,
      "常": 2082,
      "帽": 2083,
      "幌": 2084,
      "幕": 2085,
      "幡": 2086,
      "幣": 2087,
      "幫": 2088,
      "干": 2089,
      "平": 2090,
      "年": 2091,
      "幸": 2092,
      "幹": 2093,
      "幻": 2094,
      "幽": 2095,
      "幾": 2096,
      "庁": 2097,
      "広": 2098,
      "庄": 2099,
      "床": 2100,
      "店": 2101,
      "庚": 2102,
      "府": 2103,
      "度": 2104,
      "座": 2105,
      "庫": 2106,
      "庭": 2107,
      "庵": 2108,
      "庶": 2109,
      "康": 2110,
      "庸": 2111,
      "庾": 2112,
      "廃": 2113,
      "廈": 2114,
      "廓": 2115,
      "廢": 2116,
      "廣": 2117,
      "延": 2118,
      "建": 2119,
      "开": 2120,
      "弁": 2121,
      "弉": 2122,
      "式": 2123,
      "弓": 2124,
      "引": 2125,
      "弗": 2126,
      "弘": 2127,
      "张": 2128,
      "弥": 2129,
      "弦": 2130,
      "弧": 2131,
      "張": 2132,
      "強": 2133,
      "强": 2134,
      "弾": 2135,
      "彌": 2136,
      "当": 2137,
      "形": 2138,
      "彥": 2139,
      "彦": 2140,
      "彩": 2141,
      "彫": 2142,
      "彬": 2143,
      "彭": 2144,
      "彰": 2145,
      "往": 2146,
      "征": 2147,
      "徂": 2148,
      "後": 2149,
      "徠": 2150,
      "御": 2151,
      "復": 2152,
      "徳": 2153,
      "德": 2154,
      "徹": 2155,
      "心": 2156,
      "必": 2157,
      "忍": 2158,
      "志": 2159,
      "忘": 2160,
      "応": 2161,
      "忠": 2162,
      "快": 2163,
      "念": 2164,
      "怒": 2165,
      "思": 2166,
      "急": 2167,
      "性": 2168,
      "怨": 2169,
      "怪": 2170,
      "总": 2171,
      "恆": 2172,
      "恐": 2173,
      "恒": 2174,
      "恩": 2175,
      "恪": 2176,
      "恭": 2177,
      "息": 2178,
      "恵": 2179,
      "悌": 2180,
      "悟": 2181,
      "悠": 2182,
      "悦": 2183,
      "悪": 2184,
      "惇": 2185,
      "惟": 2186,
      "惠": 2187,
      "想": 2188,
      "惺": 2189,
      "意": 2190,
      "愚": 2191,
      "愛": 2192,
      "感": 2193,
      "慈": 2194,
      "慎": 2195,
      "慢": 2196,
      "慧": 2197,
      "慶": 2198,
      "憲": 2199,
      "應": 2200,
      "懋": 2201,
      "懿": 2202,
      "戀": 2203,
      "戎": 2204,
      "成": 2205,
      "我": 2206,
      "戔": 2207,
      "戚": 2208,
      "戦": 2209,
      "戯": 2210,
      "戲": 2211,
      "戴": 2212,
      "户": 2213,
      "戸": 2214,
      "房": 2215,
      "所": 2216,
      "扇": 2217,
      "手": 2218,
      "才": 2219,
      "打": 2220,
      "扬": 2221,
      "承": 2222,
      "技": 2223,
      "抄": 2224,
      "折": 2225,
      "抹": 2226,
      "拉": 2227,
      "拓": 2228,
      "招": 2229,
      "拜": 2230,
      "拝": 2231,
      "拯": 2232,
      "拳": 2233,
      "持": 2234,
      "挂": 2235,
      "指": 2236,
      "按": 2237,
      "挙": 2238,
      "振": 2239,
      "挽": 2240,
      "捄": 2241,
      "捕": 2242,
      "掛": 2243,
      "探": 2244,
      "推": 2245,
      "掸": 2246,
      "揖": 2247,
      "揚": 2248,
      "搖": 2249,
      "搜": 2250,
      "摂": 2251,
      "摩": 2252,
      "撃": 2253,
      "撫": 2254,
      "播": 2255,
      "撮": 2256,
      "撲": 2257,
      "操": 2258,
      "據": 2259,
      "擧": 2260,
      "攀": 2261,
      "支": 2262,
      "攻": 2263,
      "放": 2264,
      "政": 2265,
      "敎": 2266,
      "敏": 2267,
      "救": 2268,
      "教": 2269,
      "散": 2270,
      "敦": 2271,
      "敬": 2272,
      "数": 2273,
      "整": 2274,
      "敷": 2275,
      "文": 2276,
      "斉": 2277,
      "斋": 2278,
      "斎": 2279,
      "斐": 2280,
      "斗": 2281,
      "料": 2282,
      "斯": 2283,
      "新": 2284,
      "方": 2285,
      "於": 2286,
      "施": 2287,
      "旋": 2288,
      "族": 2289,
      "无": 2290,
      "日": 2291,
      "早": 2292,
      "旭": 2293,
      "旺": 2294,
      "旽": 2295,
      "昂": 2296,
      "昆": 2297,
      "昇": 2298,
      "昊": 2299,
      "昌": 2300,
      "明": 2301,
      "易": 2302,
      "星": 2303,
      "映": 2304,
      "春": 2305,
      "昭": 2306,
      "晁": 2307,
      "時": 2308,
      "晃": 2309,
      "晋": 2310,
      "晓": 2311,
      "晗": 2312,
      "晚": 2313,
      "普": 2314,
      "景": 2315,
      "晴": 2316,
      "晶": 2317,
      "智": 2318,
      "暁": 2319,
      "暎": 2320,
      "暢": 2321,
      "暦": 2322,
      "暴": 2323,
      "曄": 2324,
      "曉": 2325,
      "曜": 2326,
      "曲": 2327,
      "更": 2328,
      "曷": 2329,
      "書": 2330,
      "曹": 2331,
      "曺": 2332,
      "曼": 2333,
      "曽": 2334,
      "曾": 2335,
      "會": 2336,
      "月": 2337,
      "有": 2338,
      "朋": 2339,
      "服": 2340,
      "朗": 2341,
      "望": 2342,
      "朝": 2343,
      "期": 2344,
      "木": 2345,
      "未": 2346,
      "末": 2347,
      "本": 2348,
      "札": 2349,
      "朱": 2350,
      "朴": 2351,
      "杉": 2352,
      "李": 2353,
      "村": 2354,
      "杖": 2355,
      "杜": 2356,
      "条": 2357,
      "来": 2358,
      "杨": 2359,
      "杭": 2360,
      "杯": 2361,
      "東": 2362,
      "松": 2363,
      "板": 2364,
      "极": 2365,
      "枕": 2366,
      "林": 2367,
      "枚": 2368,
      "果": 2369,
      "枝": 2370,
      "架": 2371,
      "柏": 2372,
      "柑": 2373,
      "柔": 2374,
      "柚": 2375,
      "柞": 2376,
      "柯": 2377,
      "柱": 2378,
      "柳": 2379,
      "柴": 2380,
      "柿": 2381,
      "栃": 2382,
      "栄": 2383,
      "栖": 2384,
      "栗": 2385,
      "校": 2386,
      "株": 2387,
      "根": 2388,
      "格": 2389,
      "桂": 2390,
      "桃": 2391,
      "案": 2392,
      "桐": 2393,
      "桑": 2394,
      "桒": 2395,
      "桓": 2396,
      "桜": 2397,
      "梁": 2398,
      "梅": 2399,
      "梓": 2400,
      "梠": 2401,
      "梢": 2402,
      "梦": 2403,
      "梨": 2404,
      "梯": 2405,
      "梶": 2406,
      "棋": 2407,
      "棚": 2408,
      "森": 2409,
      "椋": 2410,
      "植": 2411,
      "椎": 2412,
      "検": 2413,
      "楊": 2414,
      "楚": 2415,
      "楠": 2416,
      "楢": 2417,
      "業": 2418,
      "極": 2419,
      "楽": 2420,
      "榎": 2421,
      "榜": 2422,
      "榮": 2423,
      "榴": 2424,
      "槇": 2425,
      "構": 2426,
      "槌": 2427,
      "様": 2428,
      "槙": 2429,
      "槻": 2430,
      "樂": 2431,
      "樞": 2432,
      "模": 2433,
      "権": 2434,
      "横": 2435,
      "樫": 2436,
      "樹": 2437,
      "樺": 2438,
      "橋": 2439,
      "機": 2440,
      "橿": 2441,
      "檀": 2442,
      "檎": 2443,
      "檔": 2444,
      "檜": 2445,
      "櫃": 2446,
      "櫛": 2447,
      "櫻": 2448,
      "次": 2449,
      "欢": 2450,
      "欧": 2451,
      "欽": 2452,
      "歌": 2453,
      "歡": 2454,
      "止": 2455,
      "正": 2456,
      "武": 2457,
      "歩": 2458,
      "歯": 2459,
      "歴": 2460,
      "死": 2461,
      "残": 2462,
      "殖": 2463,
      "段": 2464,
      "殷": 2465,
      "殺": 2466,
      "殻": 2467,
      "殿": 2468,
      "毅": 2469,
      "母": 2470,
      "比": 2471,
      "毗": 2472,
      "毘": 2473,
      "毛": 2474,
      "氏": 2475,
      "民": 2476,
      "気": 2477,
      "氣": 2478,
      "水": 2479,
      "永": 2480,
      "汁": 2481,
      "汉": 2482,
      "汎": 2483,
      "汝": 2484,
      "江": 2485,
      "池": 2486,
      "沖": 2487,
      "沙": 2488,
      "沢": 2489,
      "沤": 2490,
      "河": 2491,
      "油": 2492,
      "治": 2493,
      "沼": 2494,
      "沽": 2495,
      "泉": 2496,
      "泊": 2497,
      "法": 2498,
      "泛": 2499,
      "泡": 2500,
      "波": 2501,
      "泥": 2502,
      "注": 2503,
      "泰": 2504,
      "泳": 2505,
      "洋": 2506,
      "洗": 2507,
      "洙": 2508,
      "洛": 2509,
      "洞": 2510,
      "津": 2511,
      "洪": 2512,
      "洲": 2513,
      "活": 2514,
      "派": 2515,
      "流": 2516,
      "浄": 2517,
      "浅": 2518,
      "浜": 2519,
      "浦": 2520,
      "浩": 2521,
      "浪": 2522,
      "浮": 2523,
      "海": 2524,
      "淀": 2525,
      "淑": 2526,
      "淚": 2527,
      "淡": 2528,
      "深": 2529,
      "淳": 2530,
      "淵": 2531,
      "淸": 2532,
      "添": 2533,
      "清": 2534,
      "済": 2535,
      "渉": 2536,
      "渕": 2537,
      "減": 2538,
      "渝": 2539,
      "渡": 2540,
      "温": 2541,
      "港": 2542,
      "游": 2543,
      "湖": 2544,
      "湘": 2545,
      "湯": 2546,
      "湾": 2547,
      "満": 2548,
      "源": 2549,
      "準": 2550,
      "溥": 2551,
      "溪": 2552,
      "滄": 2553,
      "滋": 2554,
      "滑": 2555,
      "滝": 2556,
      "滬": 2557,
      "滸": 2558,
      "滿": 2559,
      "漆": 2560,
      "漢": 2561,
      "漣": 2562,
      "漫": 2563,
      "漱": 2564,
      "潘": 2565,
      "潟": 2566,
      "潤": 2567,
      "潮": 2568,
      "澄": 2569,
      "澤": 2570,
      "澮": 2571,
      "濁": 2572,
      "濃": 2573,
      "濟": 2574,
      "濤": 2575,
      "濮": 2576,
      "濱": 2577,
      "濵": 2578,
      "瀧": 2579,
      "瀬": 2580,
      "灣": 2581,
      "火": 2582,
      "災": 2583,
      "炊": 2584,
      "炎": 2585,
      "炒": 2586,
      "烈": 2587,
      "烏": 2588,
      "無": 2589,
      "然": 2590,
      "焼": 2591,
      "煎": 2592,
      "煕": 2593,
      "煥": 2594,
      "照": 2595,
      "煮": 2596,
      "熈": 2597,
      "熊": 2598,
      "熙": 2599,
      "熱": 2600,
      "燁": 2601,
      "燦": 2602,
      "爆": 2603,
      "爱": 2604,
      "爲": 2605,
      "爵": 2606,
      "父": 2607,
      "爺": 2608,
      "爾": 2609,
      "片": 2610,
      "版": 2611,
      "牙": 2612,
      "牛": 2613,
      "牧": 2614,
      "物": 2615,
      "特": 2616,
      "犀": 2617,
      "犬": 2618,
      "狂": 2619,
      "狐": 2620,
      "狩": 2621,
      "独": 2622,
      "狭": 2623,
      "狼": 2624,
      "猛": 2625,
      "猪": 2626,
      "猫": 2627,
      "献": 2628,
      "猺": 2629,
      "獄": 2630,
      "獣": 2631,
      "獨": 2632,
      "獻": 2633,
      "玄": 2634,
      "玉": 2635,
      "王": 2636,
      "玫": 2637,
      "玲": 2638,
      "珈": 2639,
      "珍": 2640,
      "珠": 2641,
      "珪": 2642,
      "現": 2643,
      "球": 2644,
      "理": 2645,
      "琉": 2646,
      "琔": 2647,
      "琢": 2648,
      "琪": 2649,
      "琲": 2650,
      "琴": 2651,
      "瑛": 2652,
      "瑠": 2653,
      "瑤": 2654,
      "瑭": 2655,
      "瑰": 2656,
      "瑶": 2657,
      "環": 2658,
      "甄": 2659,
      "甕": 2660,
      "甘": 2661,
      "生": 2662,
      "産": 2663,
      "用": 2664,
      "甫": 2665,
      "田": 2666,
      "由": 2667,
      "甲": 2668,
      "申": 2669,
      "电": 2670,
      "男": 2671,
      "甸": 2672,
      "町": 2673,
      "画": 2674,
      "畅": 2675,
      "界": 2676,
      "畑": 2677,
      "留": 2678,
      "畝": 2679,
      "略": 2680,
      "番": 2681,
      "畫": 2682,
      "異": 2683,
      "畳": 2684,
      "畵": 2685,
      "當": 2686,
      "畿": 2687,
      "疾": 2688,
      "病": 2689,
      "症": 2690,
      "発": 2691,
      "登": 2692,
      "發": 2693,
      "白": 2694,
      "百": 2695,
      "的": 2696,
      "皇": 2697,
      "皮": 2698,
      "盆": 2699,
      "盈": 2700,
      "益": 2701,
      "盛": 2702,
      "盟": 2703,
      "監": 2704,
      "盧": 2705,
      "目": 2706,
      "直": 2707,
      "相": 2708,
      "省": 2709,
      "県": 2710,
      "眞": 2711,
      "真": 2712,
      "眼": 2713,
      "着": 2714,
      "睦": 2715,
      "瞳": 2716,
      "矢": 2717,
      "知": 2718,
      "矩": 2719,
      "石": 2720,
      "砂": 2721,
      "研": 2722,
      "砲": 2723,
      "砵": 2724,
      "硫": 2725,
      "碁": 2726,
      "碓": 2727,
      "碟": 2728,
      "碣": 2729,
      "碧": 2730,
      "碩": 2731,
      "磁": 2732,
      "磐": 2733,
      "磨": 2734,
      "磯": 2735,
      "礼": 2736,
      "社": 2737,
      "祇": 2738,
      "祐": 2739,
      "祖": 2740,
      "神": 2741,
      "祥": 2742,
      "祭": 2743,
      "禄": 2744,
      "禅": 2745,
      "禎": 2746,
      "福": 2747,
      "禪": 2748,
      "禮": 2749,
      "禰": 2750,
      "禹": 2751,
      "秀": 2752,
      "秉": 2753,
      "秋": 2754,
      "科": 2755,
      "秦": 2756,
      "称": 2757,
      "程": 2758,
      "税": 2759,
      "稔": 2760,
      "稚": 2761,
      "稜": 2762,
      "種": 2763,
      "稲": 2764,
      "稼": 2765,
      "稽": 2766,
      "穂": 2767,
      "穆": 2768,
      "積": 2769,
      "穎": 2770,
      "穴": 2771,
      "究": 2772,
      "空": 2773,
      "突": 2774,
      "窓": 2775,
      "窟": 2776,
      "竈": 2777,
      "立": 2778,
      "竜": 2779,
      "章": 2780,
      "童": 2781,
      "端": 2782,
      "競": 2783,
      "竹": 2784,
      "笔": 2785,
      "笙": 2786,
      "笠": 2787,
      "第": 2788,
      "笹": 2789,
      "笼": 2790,
      "等": 2791,
      "筑": 2792,
      "答": 2793,
      "策": 2794,
      "筠": 2795,
      "筷": 2796,
      "简": 2797,
      "箏": 2798,
      "算": 2799,
      "管": 2800,
      "箱": 2801,
      "箸": 2802,
      "節": 2803,
      "範": 2804,
      "築": 2805,
      "篠": 2806,
      "篤": 2807,
      "簡": 2808,
      "簫": 2809,
      "米": 2810,
      "粉": 2811,
      "粍": 2812,
      "粟": 2813,
      "精": 2814,
      "糎": 2815,
      "糖": 2816,
      "糸": 2817,
      "系": 2818,
      "紀": 2819,
      "約": 2820,
      "紅": 2821,
      "紋": 2822,
      "納": 2823,
      "純": 2824,
      "紗": 2825,
      "紘": 2826,
      "級": 2827,
      "素": 2828,
      "紡": 2829,
      "紫": 2830,
      "細": 2831,
      "紳": 2832,
      "紹": 2833,
      "終": 2834,
      "絃": 2835,
      "組": 2836,
      "絆": 2837,
      "経": 2838,
      "結": 2839,
      "絢": 2840,
      "給": 2841,
      "絨": 2842,
      "統": 2843,
      "絲": 2844,
      "絵": 2845,
      "綏": 2846,
      "經": 2847,
      "継": 2848,
      "続": 2849,
      "維": 2850,
      "綱": 2851,
      "綾": 2852,
      "綿": 2853,
      "緈": 2854,
      "総": 2855,
      "緑": 2856,
      "線": 2857,
      "編": 2858,
      "練": 2859,
      "縁": 2860,
      "縄": 2861,
      "縣": 2862,
      "總": 2863,
      "繁": 2864,
      "織": 2865,
      "繩": 2866,
      "纒": 2867,
      "红": 2868,
      "级": 2869,
      "绍": 2870,
      "经": 2871,
      "结": 2872,
      "绛": 2873,
      "绝": 2874,
      "维": 2875,
      "置": 2876,
      "羅": 2877,
      "羊": 2878,
      "美": 2879,
      "群": 2880,
      "義": 2881,
      "羹": 2882,
      "羽": 2883,
      "翁": 2884,
      "翊": 2885,
      "習": 2886,
      "翔": 2887,
      "翼": 2888,
      "老": 2889,
      "考": 2890,
      "者": 2891,
      "耆": 2892,
      "耉": 2893,
      "耕": 2894,
      "耳": 2895,
      "耶": 2896,
      "联": 2897,
      "聖": 2898,
      "聞": 2899,
      "聡": 2900,
      "聯": 2901,
      "聰": 2902,
      "聲": 2903,
      "職": 2904,
      "肇": 2905,
      "肥": 2906,
      "育": 2907,
      "胆": 2908,
      "背": 2909,
      "胡": 2910,
      "能": 2911,
      "脇": 2912,
      "脑": 2913,
      "腓": 2914,
      "腰": 2915,
      "臣": 2916,
      "自": 2917,
      "至": 2918,
      "致": 2919,
      "臺": 2920,
      "臼": 2921,
      "興": 2922,
      "舌": 2923,
      "舎": 2924,
      "舒": 2925,
      "舘": 2926,
      "舞": 2927,
      "舟": 2928,
      "航": 2929,
      "船": 2930,
      "艦": 2931,
      "良": 2932,
      "色": 2933,
      "艺": 2934,
      "艾": 2935,
      "节": 2936,
      "芑": 2937,
      "芝": 2938,
      "芥": 2939,
      "芭": 2940,
      "花": 2941,
      "芳": 2942,
      "芸": 2943,
      "苔": 2944,
      "苗": 2945,
      "若": 2946,
      "苫": 2947,
      "英": 2948,
      "苾": 2949,
      "茂": 2950,
      "范": 2951,
      "茅": 2952,
      "茨": 2953,
      "茱": 2954,
      "茶": 2955,
      "茹": 2956,
      "草": 2957,
      "荒": 2958,
      "荡": 2959,
      "荫": 2960,
      "荷": 2961,
      "荻": 2962,
      "莉": 2963,
      "莞": 2964,
      "菅": 2965,
      "菊": 2966,
      "菎": 2967,
      "菜": 2968,
      "華": 2969,
      "菲": 2970,
      "萌": 2971,
      "萨": 2972,
      "萩": 2973,
      "萬": 2974,
      "落": 2975,
      "葉": 2976,
      "葛": 2977,
      "董": 2978,
      "葱": 2979,
      "葵": 2980,
      "蒟": 2981,
      "蒲": 2982,
      "蒻": 2983,
      "蒼": 2984,
      "蓁": 2985,
      "蓮": 2986,
      "蔡": 2987,
      "蔵": 2988,
      "蕉": 2989,
      "蕤": 2990,
      "蕨": 2991,
      "蕪": 2992,
      "蕭": 2993,
      "薩": 2994,
      "薫": 2995,
      "藍": 2996,
      "藏": 2997,
      "藝": 2998,
      "藤": 2999,
      "藩": 3000,
      "藻": 3001,
      "蘇": 3002,
      "蘊": 3003,
      "蘭": 3004,
      "虎": 3005,
      "號": 3006,
      "虫": 3007,
      "蛇": 3008,
      "蛍": 3009,
      "蛙": 3010,
      "蛟": 3011,
      "蛭": 3012,
      "蛸": 3013,
      "蜷": 3014,
      "蝦": 3015,
      "蝶": 3016,
      "螂": 3017,
      "融": 3018,
      "螳": 3019,
      "蠅": 3020,
      "衆": 3021,
      "行": 3022,
      "術": 3023,
      "街": 3024,
      "衛": 3025,
      "衡": 3026,
      "衢": 3027,
      "衣": 3028,
      "表": 3029,
      "袁": 3030,
      "袋": 3031,
      "袖": 3032,
      "袞": 3033,
      "裂": 3034,
      "装": 3035,
      "裏": 3036,
      "裕": 3037,
      "裴": 3038,
      "西": 3039,
      "要": 3040,
      "覆": 3041,
      "覇": 3042,
      "見": 3043,
      "規": 3044,
      "視": 3045,
      "覚": 3046,
      "覧": 3047,
      "親": 3048,
      "観": 3049,
      "覽": 3050,
      "规": 3051,
      "视": 3052,
      "览": 3053,
      "角": 3054,
      "解": 3055,
      "触": 3056,
      "言": 3057,
      "計": 3058,
      "訓": 3059,
      "記": 3060,
      "設": 3061,
      "許": 3062,
      "証": 3063,
      "詞": 3064,
      "詣": 3065,
      "試": 3066,
      "詩": 3067,
      "話": 3068,
      "詳": 3069,
      "誌": 3070,
      "誓": 3071,
      "語": 3072,
      "誠": 3073,
      "説": 3074,
      "読": 3075,
      "調": 3076,
      "諏": 3077,
      "諸": 3078,
      "諾": 3079,
      "謙": 3080,
      "謝": 3081,
      "譜": 3082,
      "議": 3083,
      "譲": 3084,
      "護": 3085,
      "讃": 3086,
      "變": 3087,
      "讓": 3088,
      "讚": 3089,
      "讯": 3090,
      "记": 3091,
      "诏": 3092,
      "试": 3093,
      "话": 3094,
      "诞": 3095,
      "语": 3096,
      "谐": 3097,
      "谷": 3098,
      "豆": 3099,
      "豊": 3100,
      "豚": 3101,
      "象": 3102,
      "豪": 3103,
      "貓": 3104,
      "貝": 3105,
      "貞": 3106,
      "財": 3107,
      "貢": 3108,
      "貨": 3109,
      "貫": 3110,
      "貴": 3111,
      "貶": 3112,
      "賀": 3113,
      "資": 3114,
      "賈": 3115,
      "賔": 3116,
      "賜": 3117,
      "賞": 3118,
      "賢": 3119,
      "賦": 3120,
      "質": 3121,
      "賽": 3122,
      "贊": 3123,
      "贝": 3124,
      "贤": 3125,
      "赛": 3126,
      "赞": 3127,
      "赤": 3128,
      "走": 3129,
      "赳": 3130,
      "起": 3131,
      "趁": 3132,
      "超": 3133,
      "越": 3134,
      "趣": 3135,
      "足": 3136,
      "跡": 3137,
      "路": 3138,
      "跳": 3139,
      "踊": 3140,
      "蹊": 3141,
      "身": 3142,
      "車": 3143,
      "軍": 3144,
      "軒": 3145,
      "転": 3146,
      "軫": 3147,
      "軽": 3148,
      "輔": 3149,
      "輝": 3150,
      "輪": 3151,
      "轄": 3152,
      "轉": 3153,
      "转": 3154,
      "辅": 3155,
      "辛": 3156,
      "辞": 3157,
      "辯": 3158,
      "辰": 3159,
      "農": 3160,
      "辺": 3161,
      "辻": 3162,
      "込": 3163,
      "运": 3164,
      "近": 3165,
      "远": 3166,
      "迟": 3167,
      "迦": 3168,
      "迪": 3169,
      "送": 3170,
      "逆": 3171,
      "通": 3172,
      "速": 3173,
      "造": 3174,
      "逢": 3175,
      "連": 3176,
      "週": 3177,
      "進": 3178,
      "逸": 3179,
      "遊": 3180,
      "運": 3181,
      "道": 3182,
      "達": 3183,
      "遠": 3184,
      "選": 3185,
      "遼": 3186,
      "邇": 3187,
      "邉": 3188,
      "邊": 3189,
      "邑": 3190,
      "邡": 3191,
      "那": 3192,
      "邦": 3193,
      "邪": 3194,
      "邯": 3195,
      "郁": 3196,
      "郊": 3197,
      "郎": 3198,
      "郑": 3199,
      "郞": 3200,
      "郡": 3201,
      "部": 3202,
      "郭": 3203,
      "郵": 3204,
      "郷": 3205,
      "都": 3206,
      "鄉": 3207,
      "鄠": 3208,
      "鄧": 3209,
      "鄭": 3210,
      "鄰": 3211,
      "酎": 3212,
      "酒": 3213,
      "醂": 3214,
      "醉": 3215,
      "醍": 3216,
      "醐": 3217,
      "醜": 3218,
      "醤": 3219,
      "釋": 3220,
      "里": 3221,
      "重": 3222,
      "野": 3223,
      "釐": 3224,
      "金": 3225,
      "釘": 3226,
      "釜": 3227,
      "針": 3228,
      "釣": 3229,
      "釧": 3230,
      "鈴": 3231,
      "鈿": 3232,
      "鉄": 3233,
      "鉉": 3234,
      "鉢": 3235,
      "鉱": 3236,
      "鉾": 3237,
      "銀": 3238,
      "銃": 3239,
      "銅": 3240,
      "鋸": 3241,
      "鋼": 3242,
      "錢": 3243,
      "錦": 3244,
      "錫": 3245,
      "録": 3246,
      "鎌": 3247,
      "鎔": 3248,
      "鎖": 3249,
      "鎬": 3250,
      "鎭": 3251,
      "鎮": 3252,
      "鏡": 3253,
      "鐘": 3254,
      "鐡": 3255,
      "鐵": 3256,
      "鑊": 3257,
      "鑑": 3258,
      "鑴": 3259,
      "针": 3260,
      "钧": 3261,
      "钱": 3262,
      "铁": 3263,
      "镇": 3264,
      "镜": 3265,
      "長": 3266,
      "长": 3267,
      "門": 3268,
      "開": 3269,
      "間": 3270,
      "関": 3271,
      "閣": 3272,
      "闇": 3273,
      "闘": 3274,
      "關": 3275,
      "门": 3276,
      "阜": 3277,
      "阪": 3278,
      "防": 3279,
      "阳": 3280,
      "阿": 3281,
      "陀": 3282,
      "附": 3283,
      "陆": 3284,
      "限": 3285,
      "陕": 3286,
      "陛": 3287,
      "陝": 3288,
      "院": 3289,
      "陰": 3290,
      "陳": 3291,
      "陵": 3292,
      "陶": 3293,
      "陸": 3294,
      "険": 3295,
      "陽": 3296,
      "隅": 3297,
      "隆": 3298,
      "隈": 3299,
      "隊": 3300,
      "隋": 3301,
      "隐": 3302,
      "際": 3303,
      "隠": 3304,
      "隼": 3305,
      "雀": 3306,
      "雁": 3307,
      "雄": 3308,
      "雅": 3309,
      "集": 3310,
      "雇": 3311,
      "雒": 3312,
      "雛": 3313,
      "難": 3314,
      "雪": 3315,
      "雲": 3316,
      "雷": 3317,
      "電": 3318,
      "需": 3319,
      "震": 3320,
      "霊": 3321,
      "霍": 3322,
      "霏": 3323,
      "霞": 3324,
      "霧": 3325,
      "靑": 3326,
      "青": 3327,
      "靖": 3328,
      "静": 3329,
      "靜": 3330,
      "非": 3331,
      "面": 3332,
      "靱": 3333,
      "韓": 3334,
      "韩": 3335,
      "音": 3336,
      "韶": 3337,
      "響": 3338,
      "頂": 3339,
      "順": 3340,
      "須": 3341,
      "頑": 3342,
      "頭": 3343,
      "顕": 3344,
      "顶": 3345,
      "顾": 3346,
      "频": 3347,
      "额": 3348,
      "風": 3349,
      "风": 3350,
      "飛": 3351,
      "飞": 3352,
      "飢": 3353,
      "飩": 3354,
      "飯": 3355,
      "飼": 3356,
      "飾": 3357,
      "餅": 3358,
      "養": 3359,
      "館": 3360,
      "饂": 3361,
      "饅": 3362,
      "饌": 3363,
      "馆": 3364,
      "首": 3365,
      "香": 3366,
      "馨": 3367,
      "馬": 3368,
      "駅": 3369,
      "駐": 3370,
      "駒": 3371,
      "駿": 3372,
      "騒": 3373,
      "騨": 3374,
      "驒": 3375,
      "马": 3376,
      "驻": 3377,
      "高": 3378,
      "髙": 3379,
      "鬼": 3380,
      "魁": 3381,
      "魂": 3382,
      "魏": 3383,
      "魔": 3384,
      "魚": 3385,
      "魯": 3386,
      "鮮": 3387,
      "鱒": 3388,
      "鲁": 3389,
      "鳥": 3390,
      "鳩": 3391,
      "鳳": 3392,
      "鳴": 3393,
      "鴇": 3394,
      "鴨": 3395,
      "鶏": 3396,
      "鶴": 3397,
      "鷦": 3398,
      "鷯": 3399,
      "鷲": 3400,
      "鷹": 3401,
      "鸕": 3402,
      "鸟": 3403,
      "鹤": 3404,
      "鹽": 3405,
      "鹿": 3406,
      "麒": 3407,
      "麗": 3408,
      "麟": 3409,
      "麦": 3410,
      "麩": 3411,
      "麵": 3412,
      "麹": 3413,
      "麻": 3414,
      "麿": 3415,
      "黃": 3416,
      "黄": 3417,
      "黎": 3418,
      "黒": 3419,
      "黨": 3420,
      "鼓": 3421,
      "鼠": 3422,
      "齊": 3423,
      "齋": 3424,
      "齐": 3425,
      "齦": 3426,
      "龍": 3427,
      "龐": 3428,
      "龙": 3429,
      "龜": 3430,
      "Ꙥ": 3431,
      "ꙥ": 3432,
      "ꜣ": 3433,
      "ꞌ": 3434,
      "ꠂ": 3435,
      "꠆": 3436,
      "ꠉ": 3437,
      "ꠍ": 3438,
      "ꠎ": 3439,
      "ꠐ": 3440,
      "ꠘ": 3441,
      "ꠛ": 3442,
      "ꠜ": 3443,
      "ꠝ": 3444,
      "ꠟ": 3445,
      "ꠡ": 3446,
      "ꠢ": 3447,
      "ꠣ": 3448,
      "ꠤ": 3449,
      "ꠥ": 3450,
      "ꦑ": 3451,
      "ꦗ": 3452,
      "ꦢ": 3453,
      "ꦮ": 3454,
      "ꦶ": 3455,
      "꧈": 3456,
      "ꩻ": 3457,
      "﨑": 3458,
      "︎": 3459,
      "️": 3460,
      "￼": 3461,
      "𐎡": 3462,
      "𐎺": 3463,
      "𐎼": 3464,
      "𐏃": 3465,
      "𐓁": 3466,
      "𐓂": 3467,
      "𐓏": 3468,
      "𐓘": 3469,
      "𐓟": 3470,
      "𐓣": 3471,
      "𐓤": 3472,
      "𐓯": 3473,
      "𐓻": 3474,
      "𐤃": 3475,
      "𑀅": 3476,
      "𑀓": 3477,
      "𑀲": 3478,
      "𑁄": 3479,
      "𑄋": 3480,
      "𑄌": 3481,
      "𑄟": 3482,
      "𑄩": 3483,
      "𑄬": 3484,
      "𑄴": 3485,
      "𑐣": 3486,
      "𑐰": 3487,
      "𑐵": 3488,
      "𑐾": 3489,
      "𑑅": 3490,
      "𒆠": 3491,
      "𒈥": 3492,
      "𒌅": 3493,
      "𒌵": 3494,
      "𝄫": 3495,
      "🆕": 3496,
      "🉑": 3497,
      "🌍": 3498,
      "🌐": 3499,
      "🌟": 3500,
      "🍃": 3501,
      "🍊": 3502,
      "🍓": 3503,
      "🍰": 3504,
      "🎉": 3505,
      "🎓": 3506,
      "🎚": 3507,
      "🎧": 3508,
      "🏃": 3509,
      "🏦": 3510,
      "🏫": 3511,
      "🐍": 3512,
      "🐪": 3513,
      "👉": 3514,
      "👋": 3515,
      "👍": 3516,
      "👓": 3517,
      "👨": 3518,
      "👩": 3519,
      "👪": 3520,
      "👾": 3521,
      "💊": 3522,
      "💎": 3523,
      "💖": 3524,
      "💡": 3525,
      "💩": 3526,
      "📡": 3527,
      "📦": 3528,
      "📮": 3529,
      "📰": 3530,
      "🔁": 3531,
      "🔍": 3532,
      "🔑": 3533,
      "🔠": 3534,
      "🔡": 3535,
      "😁": 3536,
      "😃": 3537,
      "😄": 3538,
      "😉": 3539,
      "🚀": 3540,
      "🚆": 3541,
      "🤓": 3542,
      "🤘": 3543,
      "🥙": 3544,
      "🦈": 3545,
      "🦋": 3546,
      "𥮊": 3547,
      "##t": 3548,
      "##e": 3549,
      "##n": 3550,
      "##g": 3551,
      "##l": 3552,
      "##4": 3553,
      "##5": 3554,
      "##o": 3555,
      "##s": 3556,
      "##a": 3557,
      "##d": 3558,
      "##h": 3559,
      "##u": 3560,
      "##i": 3561,
      "##c": 3562,
      "##r": 3563,
      "##p": 3564,
      "##y": 3565,
      "##m": 3566,
      "##v": 3567,
      "##f": 3568,
      "##C": 3569,
      "##E": 3570,
      "##P": 3571,
      "##k": 3572,
      "##w": 3573,
      "##b": 3574,
      "##0": 3575,
      "##q": 3576,
      "##L": 3577,
      "##M": 3578,
      "##\"": 3579,
      "##/": 3580,
      "##S": 3581,
      "##V": 3582,
      "##,": 3583,
      "##x": 3584,
      "##z": 3585,
      "##K": 3586,
      "##j": 3587,
      "##B": 3588,
      "##ł": 3589,
      "##O": 3590,
      "##3": 3591,
      "##1": 3592,
      "##2": 3593,
      "##6": 3594,
      "##7": 3595,
      "##}": 3596,
      "##.": 3597,
      "##N": 3598,
      "##U": 3599,
      "##þ": 3600,
      "##D": 3601,
      "##ο": 3602,
      "##λ": 3603,
      "##υ": 3604,
      "##R": 3605,
      "##南": 3606,
      "##一": 3607,
      "##H": 3608,
      "##ス": 3609,
      "##A": 3610,
      "##G": 3611,
      "##T": 3612,
      "##9": 3613,
      "##F": 3614,
      "##8": 3615,
      "##ר": 3616,
      "##J": 3617,
      "##ז": 3618,
      "##י": 3619,
      "##ה": 3620,
      "##α": 3621,
      "##I": 3622,
      "##_": 3623,
      "##)": 3624,
      "##]": 3625,
      "##е": 3626,
      "##л": 3627,
      "##о": 3628,
      "##э": 3629,
      "##м": 3630,
      "##и": 3631,
      "##г": 3632,
      "##р": 3633,
      "##а": 3634,
      "##н": 3635,
      "##т": 3636,
      "##ग": 3637,
      "##ा": 3638,
      "##ल": 3639,
      "##े": 3640,
      "##ᅢ": 3641,
      "##ᆼ": 3642,
      "##ᄋ": 3643,
      "##ᅲ": 3644,
      "##ᆨ": 3645,
      "##ᄉ": 3646,
      "##ᅵ": 3647,
      "##ᆫ": 3648,
      "##耆": 3649,
      "##国": 3650,
      "##え": 3651,
      "##る": 3652,
      "##ア": 3653,
      "##イ": 3654,
      "##ト": 3655,
      "##ו": 3656,
      "##מ": 3657,
      "##ש": 3658,
      "##ː": 3659,
      "##к": 3660,
      "##с": 3661,
      "##б": 3662,
      "##у": 3663,
      "##村": 3664,
      "##ь": 3665,
      "##ч": 3666,
      "##ᄀ": 3667,
      "##ᅮ": 3668,
      "##ɛ": 3669,
      "##ʁ": 3670,
      "##ι": 3671,
      "##κ": 3672,
      "##ρ": 3673,
      "##ν": 3674,
      "##也": 3675,
      "##X": 3676,
      "##ル": 3677,
      "##в": 3678,
      "##д": 3679,
      "##W": 3680,
      "##~": 3681,
      "##ד": 3682,
      "##ל": 3683,
      "##ן": 3684,
      "##文": 3685,
      "##帝": 3686,
      "##(": 3687,
      "##萨": 3688,
      "##ˈ": 3689,
      "##ə": 3690,
      "##吉": 3691,
      "##子": 3692,
      "##æ": 3693,
      "##ʀ": 3694,
      "##ا": 3695,
      "##ل": 3696,
      "##ح": 3697,
      "##ي": 3698,
      "##ة": 3699,
      "##ா": 3700,
      "##ண": 3701,
      "##ங": 3702,
      "##条": 3703,
      "##ಾ": 3704,
      "##ಜ": 3705,
      "##ಗ": 3706,
      "##ೆ": 3707,
      "##ೂ": 3708,
      "##ೕ": 3709,
      "##ಪ": 3710,
      "##ಲ": 3711,
      "##ಚ": 3712,
      "##ರ": 3713,
      "##祭": 3714,
      "##り": 3715,
      "##ე": 3716,
      "##ʻ": 3717,
      "##式": 3718,
      "##自": 3719,
      "##走": 3720,
      "##榴": 3721,
      "##弾": 3722,
      "##砲": 3723,
      "##ک": 3724,
      "##厨": 3725,
      "##川": 3726,
      "##貞": 3727,
      "##ن": 3728,
      "##ر": 3729,
      "##ı": 3730,
      "##η": 3731,
      "##ډ": 3732,
      "##و": 3733,
      "##ε": 3734,
      "##阜": 3735,
      "##県": 3736,
      "##ز": 3737,
      "##ً": 3738,
      "##島": 3739,
      "##大": 3740,
      "##学": 3741,
      "##ɔ": 3742,
      "##β": 3743,
      "##Y": 3744,
      "##ु": 3745,
      "##र": 3746,
      "##द": 3747,
      "##ब": 3748,
      "##ウ": 3749,
      "##ב": 3750,
      "##ק": 3751,
      "##@": 3752,
      "##益": 3753,
      "##鉉": 3754,
      "##武": 3755,
      "##天": 3756,
      "##皇": 3757,
      "##京": 3758,
      "##化": 3759,
      "##財": 3760,
      "##研": 3761,
      "##究": 3762,
      "##所": 3763,
      "##ि": 3764,
      "##ट": 3765,
      "##न": 3766,
      "##ß": 3767,
      "##杉": 3768,
      "##亮": 3769,
      "##太": 3770,
      "##Р": 3771,
      "##泉": 3772,
      "##の": 3773,
      "##妮": 3774,
      "##テ": 3775,
      "##代": 3776,
      "##宏": 3777,
      "##樹": 3778,
      "##ς": 3779,
      "##輔": 3780,
      "##根": 3781,
      "##ヒ": 3782,
      "##ɟ": 3783,
      "##ø": 3784,
      "##ᄅ": 3785,
      "##ᅥ": 3786,
      "##ᄂ": 3787,
      "##典": 3788,
      "##蒻": 3789,
      "##田": 3790,
      "##栄": 3791,
      "##治": 3792,
      "##ᅪ": 3793,
      "##ᅡ": 3794,
      "##ᆷ": 3795,
      "##'": 3796,
      "##ち": 3797,
      "##ゃ": 3798,
      "##ん": 3799,
      "##三": 3800,
      "##倉": 3801,
      "##角": 3802,
      "##調": 3803,
      "##真": 3804,
      "##μ": 3805,
      "##φ": 3806,
      "##ա": 3807,
      "##յ": 3808,
      "##ե": 3809,
      "##ր": 3810,
      "##ն": 3811,
      "##σ": 3812,
      "##{": 3813,
      "##勝": 3814,
      "##シ": 3815,
      "##ハ": 3816,
      "##پ": 3817,
      "##ت": 3818,
      "##ھ": 3819,
      "##ہ": 3820,
      "##ो": 3821,
      "##क": 3822,
      "##生": 3823,
      "##া": 3824,
      "##ল": 3825,
      "##য": 3826,
      "##別": 3827,
      "##区": 3828,
      "##ᅩ": 3829,
      "##ᄒ": 3830,
      "##ك": 3831,
      "##$": 3832,
      "##+": 3833,
      "##-": 3834,
      "##ج": 3835,
      "##م": 3836,
      "##ع": 3837,
      "##氏": 3838,
      "##ð": 3839,
      "##ʿ": 3840,
      "##音": 3841,
      "##林": 3842,
      "##ন": 3843,
      "##থ": 3844,
      "##後": 3845,
      "##山": 3846,
      "##邦": 3847,
      "##夫": 3848,
      "##ζ": 3849,
      "##ω": 3850,
      "##畫": 3851,
      "##美": 3852,
      "##諸": 3853,
      "##上": 3854,
      "##市": 3855,
      "##ᄎ": 3856,
      "##ᅴ": 3857,
      "##ц": 3858,
      "##ᅧ": 3859,
      "##ᄃ": 3860,
      "##ᅭ": 3861,
      "##ᄇ": 3862,
      "##ᄆ": 3863,
      "##ᆯ": 3864,
      "##я": 3865,
      "##দ": 3866,
      "##غ": 3867,
      "##ی": 3868,
      "##ո": 3869,
      "##հ": 3870,
      "##դ": 3871,
      "##東": 3872,
      "##タ": 3873,
      "##ワ": 3874,
      "##ー": 3875,
      "##א": 3876,
      "##ס": 3877,
      "##ם": 3878,
      "##崎": 3879,
      "##殺": 3880,
      "##傷": 3881,
      "##事": 3882,
      "##件": 3883,
      "##醂": 3884,
      "##藤": 3885,
      "##谷": 3886,
      "##風": 3887,
      "##敬": 3888,
      "##愛": 3889,
      "##河": 3890,
      "##内": 3891,
      "##幡": 3892,
      "##人": 3893,
      "##首": 3894,
      "##ش": 3895,
      "##ٔ": 3896,
      "##ʃ": 3897,
      "##ٕ": 3898,
      "##س": 3899,
      "##د": 3900,
      "##Z": 3901,
      "##古": 3902,
      "##石": 3903,
      "##十": 3904,
      "##花": 3905,
      "##甲": 3906,
      "##清": 3907,
      "##系": 3908,
      "##カ": 3909,
      "##ナ": 3910,
      "##|": 3911,
      "##>": 3912,
      "##み": 3913,
      "##結": 3914,
      "##ひ": 3915,
      "##ង": 3916,
      "##כ": 3917,
      "##賀": 3918,
      "##ළ": 3919,
      "##ා": 3920,
      "##リ": 3921,
      "##エ": 3922,
      "##ッ": 3923,
      "##華": 3924,
      "##レ": 3925,
      "##ク": 3926,
      "##サ": 3927,
      "##ン": 3928,
      "##﨑": 3929,
      "##給": 3930,
      "##伸": 3931,
      "##&": 3932,
      "##部": 3933,
      "##省": 3934,
      "##श": 3935,
      "##ょ": 3936,
      "##株": 3937,
      "##会": 3938,
      "##社": 3939,
      "##[": 3940,
      "##צ": 3941,
      "##閣": 3942,
      "##平": 3943,
      "##χ": 3944,
      "##佑": 3945,
      "##宅": 3946,
      "##^": 3947,
      "##司": 3948,
      "##Q": 3949,
      "##ه": 3950,
      "##当": 3951,
      "##屋": 3952,
      "##元": 3953,
      "##さ": 3954,
      "##し": 3955,
      "##đ": 3956,
      "##介": 3957,
      "##\\": 3958,
      "##久": 3959,
      "##ム": 3960,
      "##ョ": 3961,
      "##口": 3962,
      "##:": 3963,
      "##ի": 3964,
      "##կ": 3965,
      "##ִ": 3966,
      "##ּ": 3967,
      "##פ": 3968,
      "##室": 3969,
      "##ా": 3970,
      "##ర": 3971,
      "##ణ": 3972,
      "##స": 3973,
      "##ి": 3974,
      "##沢": 3975,
      "##ŋ": 3976,
      "##ɡ": 3977,
      "##波": 3978,
      "##継": 3979,
      "##く": 3980,
      "##郎": 3981,
      "##我": 3982,
      "##小": 3983,
      "##姉": 3984,
      "##君": 3985,
      "##下": 3986,
      "##幸": 3987,
      "##メ": 3988,
      "##π": 3989,
      "##戸": 3990,
      "##幕": 3991,
      "##之": 3992,
      "##ौ": 3993,
      "##प": 3994,
      "##ف": 3995,
      "##ب": 3996,
      "##ق": 3997,
      "##گ": 3998,
      "##ָ": 3999,
      "##ע": 4000,
      "##ְ": 4001,
      "##ת": 4002,
      "##ੰ": 4003,
      "##ਦ": 4004,
      "##ੀ": 4005,
      "##晴": 4006,
      "##ח": 4007,
      "##主": 4008,
      "##党": 4009,
      "##ɪ": 4010,
      "##橋": 4011,
      "##尾": 4012,
      "##寺": 4013,
      "##ш": 4014,
      "##ֹ": 4015,
      "##ַ": 4016,
      "##ׁ": 4017,
      "##ט": 4018,
      "##哉": 4019,
      "##針": 4020,
      "##ג": 4021,
      "##τ": 4022,
      "##ᄐ": 4023,
      "##雄": 4024,
      "##ি": 4025,
      "##ম": 4026,
      "##র": 4027,
      "##ᡳ": 4028,
      "##ᠰ": 4029,
      "##ᡠ": 4030,
      "##ᠨ": 4031,
      "##本": 4032,
      "##雅": 4033,
      "##殿": 4034,
      "##х": 4035,
      "##ы": 4036,
      "##志": 4037,
      "##神": 4038,
      "##宮": 4039,
      "##卓": 4040,
      "##ಮ": 4041,
      "##ವ": 4042,
      "##ャ": 4043,
      "##術": 4044,
      "##ニ": 4045,
      "##壤": 4046,
      "##直": 4047,
      "##轄": 4048,
      "##ু": 4049,
      "##ʼ": 4050,
      "##鼠": 4051,
      "##ত": 4052,
      "##ী": 4053,
      "##玉": 4054,
      "##த": 4055,
      "##க": 4056,
      "##ம": 4057,
      "##ਾ": 4058,
      "##ਲ": 4059,
      "##ੁ": 4060,
      "##ਕ": 4061,
      "##和": 4062,
      "##総": 4063,
      "##ラ": 4064,
      "##キ": 4065,
      "##<": 4066,
      "##仙": 4067,
      "##岳": 4068,
      "##=": 4069,
      "##コ": 4070,
      "##θ": 4071,
      "##ィ": 4072,
      "##γ": 4073,
      "##野": 4074,
      "##ץ": 4075,
      "##ծ": 4076,
      "##ռ": 4077,
      "##բ": 4078,
      "##フ": 4079,
      "##ォ": 4080,
      "##ে": 4081,
      "##ক": 4082,
      "##خ": 4083,
      "##ط": 4084,
      "##泰": 4085,
      "##ξ": 4086,
      "##ェ": 4087,
      "##樞": 4088,
      "##院": 4089,
      "##趣": 4090,
      "##园": 4091,
      "##隅": 4092,
      "##ヘ": 4093,
      "##า": 4094,
      "##ด": 4095,
      "##ช": 4096,
      "##ะ": 4097,
      "##อ": 4098,
      "##ํ": 4099,
      "##洋": 4100,
      "##ʔ": 4101,
      "##者": 4102,
      "##ɑ": 4103,
      "##*": 4104,
      "##輝": 4105,
      "##輪": 4106,
      "##ʊ": 4107,
      "##園": 4108,
      "##!": 4109,
      "##偉": 4110,
      "##亀": 4111,
      "##す": 4112,
      "##𑀲": 4113,
      "##𑁄": 4114,
      "##𑀓": 4115,
      "##店": 4116,
      "##雲": 4117,
      "##家": 4118,
      "##物": 4119,
      "##語": 4120,
      "##ᄍ": 4121,
      "##;": 4122,
      "##ں": 4123,
      "##護": 4124,
      "##景": 4125,
      "##堂": 4126,
      "##վ": 4127,
      "##п": 4128,
      "##ख": 4129,
      "##へ": 4130,
      "##ଆ": 4131,
      "##手": 4132,
      "##柑": 4133,
      "##明": 4134,
      "##历": 4135,
      "##ゆ": 4136,
      "##ɬ": 4137,
      "##™": 4138,
      "##モ": 4139,
      "##模": 4140,
      "##原": 4141,
      "##ಿ": 4142,
      "##忠": 4143,
      "##潟": 4144,
      "##岡": 4145,
      "##修": 4146,
      "##造": 4147,
      "##ж": 4148,
      "##時": 4149,
      "##ণ": 4150,
      "##斗": 4151,
      "##嶋": 4152,
      "##井": 4153,
      "##孝": 4154,
      "##歌": 4155,
      "##豊": 4156,
      "##ֶ": 4157,
      "##ֵ": 4158,
      "##ᅯ": 4159,
      "##И": 4160,
      "##נ": 4161,
      "##ヨ": 4162,
      "##應": 4163,
      "##麟": 4164,
      "##安": 4165,
      "##西": 4166,
      "##地": 4167,
      "##方": 4168,
      "##永": 4169,
      "##ʏ": 4170,
      "##ɐ": 4171,
      "##足": 4172,
      "##ड": 4173,
      "##म": 4174,
      "##ћ": 4175,
      "##з": 4176,
      "##چ": 4177,
      "##木": 4178,
      "##オ": 4179,
      "##猪": 4180,
      "##А": 4181,
      "##身": 4182,
      "##老": 4183,
      "##沼": 4184,
      "##兴": 4185,
      "##岛": 4186,
      "##狐": 4187,
      "##む": 4188,
      "##茶": 4189,
      "##栗": 4190,
      "##八": 4191,
      "##Σ": 4192,
      "##Ο": 4193,
      "##Λ": 4194,
      "##ֽ": 4195,
      "##δ": 4196,
      "##町": 4197,
      "##裂": 4198,
      "##け": 4199,
      "##女": 4200,
      "##ᅳ": 4201,
      "##攀": 4202,
      "##竜": 4203,
      "##男": 4204,
      "##ِ": 4205,
      "##マ": 4206,
      "##都": 4207,
      "##ᄌ": 4208,
      "##უ": 4209,
      "##რ": 4210,
      "##ჯ": 4211,
      "##ა": 4212,
      "##ნ": 4213,
      "##ძ": 4214,
      "##ヌ": 4215,
      "##হ": 4216,
      "##葉": 4217,
      "##軽": 4218,
      "##海": 4219,
      "##峡": 4220,
      "##職": 4221,
      "##为": 4222,
      "###": 4223,
      "##字": 4224,
      "##繁": 4225,
      "##表": 4226,
      "##ᅦ": 4227,
      "##ᄑ": 4228,
      "##ᅱ": 4229,
      "##観": 4230,
      "##ា": 4231,
      "##ត": 4232,
      "##ិ": 4233,
      "##ಸ": 4234,
      "##チ": 4235,
      "##広": 4236,
      "##嗣": 4237,
      "##族": 4238,
      "##き": 4239,
      "##始": 4240,
      "##榮": 4241,
      "##二": 4242,
      "##七": 4243,
      "##粍": 4244,
      "##機": 4245,
      "##銃": 4246,
      "##曼": 4247,
      "##學": 4248,
      "##羽": 4249,
      "##坂": 4250,
      "##ழ": 4251,
      "##前": 4252,
      "##張": 4253,
      "##そ": 4254,
      "##は": 4255,
      "##務": 4256,
      "##總": 4257,
      "##理": 4258,
      "##澤": 4259,
      "##李": 4260,
      "##佳": 4261,
      "##呂": 4262,
      "##ɾ": 4263,
      "##阪": 4264,
      "##吾": 4265,
      "##ू": 4266,
      "##ष": 4267,
      "##ण": 4268,
      "##മ": 4269,
      "##長": 4270,
      "##比": 4271,
      "##賽": 4272,
      "##ツ": 4273,
      "##利": 4274,
      "##府": 4275,
      "##伍": 4276,
      "##貴": 4277,
      "##盆": 4278,
      "##酒": 4279,
      "##ۉ": 4280,
      "##留": 4281,
      "##梯": 4282,
      "##妻": 4283,
      "##道": 4284,
      "##路": 4285,
      "##巳": 4286,
      "##ቡ": 4287,
      "##ጊ": 4288,
      "##ዳ": 4289,
      "##成": 4290,
      "##磨": 4291,
      "##津": 4292,
      "##ម": 4293,
      "##夷": 4294,
      "##征": 4295,
      "##伐": 4296,
      "##セ": 4297,
      "##済": 4298,
      "##摩": 4299,
      "##љ": 4300,
      "##ص": 4301,
      "##ء": 4302,
      "##ਰ": 4303,
      "##ਟ": 4304,
      "##ெ": 4305,
      "##ப": 4306,
      "##ъ": 4307,
      "##塚": 4308,
      "##球": 4309,
      "##藩": 4310,
      "##鳳": 4311,
      "##暦": 4312,
      "##ं": 4313,
      "##ह": 4314,
      "##奥": 4315,
      "##右": 4316,
      "##衛": 4317,
      "##門": 4318,
      "##松": 4319,
      "##ظ": 4320,
      "##ケ": 4321,
      "##œ": 4322,
      "##桜": 4323,
      "##塩": 4324,
      "##ʕ": 4325,
      "##脇": 4326,
      "##少": 4327,
      "##ホ": 4328,
      "##行": 4329,
      "##土": 4330,
      "##江": 4331,
      "##瀬": 4332,
      "##媛": 4333,
      "##ᆻ": 4334,
      "##ᆭ": 4335,
      "##城": 4336,
      "##周": 4337,
      "##面": 4338,
      "##?": 4339,
      "##國": 4340,
      "##世": 4341,
      "##好": 4342,
      "##工": 4343,
      "##弘": 4344,
      "##ᅬ": 4345,
      "##鷹": 4346,
      "##独": 4347,
      "##立": 4348,
      "##政": 4349,
      "##法": 4350,
      "##覧": 4351,
      "##ˌ": 4352,
      "##佐": 4353,
      "##鎭": 4354,
      "##士": 4355,
      "##ノ": 4356,
      "##折": 4357,
      "##ᅨ": 4358,
      "##ᄁ": 4359,
      "##ᆾ": 4360,
      "##登": 4361,
      "##ະ": 4362,
      "##ຕ": 4363,
      "##ູ": 4364,
      "##ໄ": 4365,
      "##ຊ": 4366,
      "##晃": 4367,
      "##夢": 4368,
      "##ψ": 4369,
      "##ው": 4370,
      "##ዴ": 4371,
      "##ګ": 4372,
      "##秉": 4373,
      "##喆": 4374,
      "##州": 4375,
      "##ኮ": 4376,
      "##ን": 4377,
      "##厚": 4378,
      "##聰": 4379,
      "##維": 4380,
      "##新": 4381,
      "##謙": 4382,
      "##ɜ": 4383,
      "##ɹ": 4384,
      "##雪": 4385,
      "##飛": 4386,
      "##い": 4387,
      "##な": 4388,
      "##渡": 4389,
      "##浦": 4390,
      "##均": 4391,
      "##外": 4392,
      "##ો": 4393,
      "##軍": 4394,
      "##際": 4395,
      "##宿": 4396,
      "##ເ": 4397,
      "##ທ": 4398,
      "##ດ": 4399,
      "##ລ": 4400,
      "##າ": 4401,
      "##ວ": 4402,
      "##那": 4403,
      "##電": 4404,
      "##気": 4405,
      "##জ": 4406,
      "##ব": 4407,
      "##光": 4408,
      "##话": 4409,
      "##富": 4410,
      "##ⵉ": 4411,
      "##ⵣ": 4412,
      "##ⴷ": 4413,
      "##ⴰ": 4414,
      "##聲": 4415,
      "##蔵": 4416,
      "##派": 4417,
      "##螳": 4418,
      "##螂": 4419,
      "##義": 4420,
      "##星": 4421,
      "##柔": 4422,
      "##流": 4423,
      "##秀": 4424,
      "##ネ": 4425,
      "##妹": 4426,
      "##你": 4427,
      "##胆": 4428,
      "##的": 4429,
      "##往": 4430,
      "##ɯ": 4431,
      "##正": 4432,
      "##ꞌ": 4433,
      "##祐": 4434,
      "##里": 4435,
      "##奈": 4436,
      "##ར": 4437,
      "##ी": 4438,
      "##円": 4439,
      "##融": 4440,
      "##ዐ": 4441,
      "##ረ": 4442,
      "##ュ": 4443,
      "##史": 4444,
      "##เ": 4445,
      "##ื": 4446,
      "##ꠤ": 4447,
      "##ꠟ": 4448,
      "##ꠐ": 4449,
      "##弥": 4450,
      "##黒": 4451,
      "##沙": 4452,
      "##中": 4453,
      "##琔": 4454,
      "##宣": 4455,
      "##獻": 4456,
      "##懿": 4457,
      "##王": 4458,
      "##伝": 4459,
      "##隆": 4460,
      "##ݩ": 4461,
      "##ݐ": 4462,
      "##ڒ": 4463,
      "##ү": 4464,
      "##宇": 4465,
      "##宙": 4466,
      "##英": 4467,
      "##記": 4468,
      "##力": 4469,
      "##裕": 4470,
      "##馨": 4471,
      "##逸": 4472,
      "##基": 4473,
      "##御": 4474,
      "##伽": 4475,
      "##草": 4476,
      "##ף": 4477,
      "##四": 4478,
      "##糎": 4479,
      "##加": 4480,
      "##農": 4481,
      "##次": 4482,
      "##彦": 4483,
      "##庚": 4484,
      "##ञ": 4485,
      "##ւ": 4486,
      "##ք": 4487,
      "##փ": 4488,
      "##տ": 4489,
      "##ڑ": 4490,
      "##ී": 4491,
      "##ර": 4492,
      "##ි": 4493,
      "##ස": 4494,
      "##昌": 4495,
      "##康": 4496,
      "##ህ": 4497,
      "##ለ": 4498,
      "##ወ": 4499,
      "##ር": 4500,
      "##ቅ": 4501,
      "##実": 4502,
      "##良": 4503,
      "##壁": 4504,
      "##ர": 4505,
      "##ி": 4506,
      "##ய": 4507,
      "##茱": 4508,
      "##麗": 4509,
      "##ል": 4510,
      "##ደ": 4511,
      "##ተ": 4512,
      "##ክ": 4513,
      "##ሌ": 4514,
      "##越": 4515,
      "##駅": 4516,
      "##ゅ": 4517,
      "##う": 4518,
      "##お": 4519,
      "##ڪ": 4520,
      "##ચ": 4521,
      "##榎": 4522,
      "##禄": 4523,
      "##戦": 4524,
      "##寳": 4525,
      "##誠": 4526,
      "##ٓ": 4527,
      "##厳": 4528,
      "##ृ": 4529,
      "##त": 4530,
      "##淸": 4531,
      "##թ": 4532,
      "##油": 4533,
      "##然": 4534,
      "##ɳ": 4535,
      "##邪": 4536,
      "##命": 4537,
      "##日": 4538,
      "##紀": 4539,
      "##水": 4540,
      "##鎮": 4541,
      "##इ": 4542,
      "##ᠦ": 4543,
      "##ᠷ": 4544,
      "##ᠢ": 4545,
      "##ᠶ": 4546,
      "##ᠡ": 4547,
      "##界": 4548,
      "##ɒ": 4549,
      "##猫": 4550,
      "##動": 4551,
      "##陸": 4552,
      "##仁": 4553,
      "##親": 4554,
      "##撫": 4555,
      "##威": 4556,
      "##ீ": 4557,
      "##侍": 4558,
      "##ʒ": 4559,
      "##建": 4560,
      "##与": 4561,
      "##百": 4562,
      "##і": 4563,
      "##щ": 4564,
      "##禅": 4565,
      "##韓": 4566,
      "##校": 4567,
      "##附": 4568,
      "##設": 4569,
      "##高": 4570,
      "##等": 4571,
      "##勇": 4572,
      "##ʾ": 4573,
      "##豆": 4574,
      "##笼": 4575,
      "##包": 4576,
      "##話": 4577,
      "##間": 4578,
      "##見": 4579,
      "##Ɔ": 4580,
      "##寿": 4581,
      "##馬": 4582,
      "##場": 4583,
      "##重": 4584,
      "##保": 4585,
      "##壬": 4586,
      "##寅": 4587,
      "##伯": 4588,
      "##會": 4589,
      "##哀": 4590,
      "##希": 4591,
      "##岭": 4592,
      "##ေ": 4593,
      "##ာ": 4594,
      "##င": 4595,
      "##寛": 4596,
      "##َ": 4597,
      "##ْ": 4598,
      "##脑": 4599,
      "##ট": 4600,
      "##%": 4601,
      "##民": 4602,
      "##ј": 4603,
      "##ே": 4604,
      "##ச": 4605,
      "##ு": 4606,
      "##வ": 4607,
      "##年": 4608,
      "##五": 4609,
      "##呪": 4610,
      "##封": 4611,
      "##印": 4612,
      "##飾": 4613,
      "##形": 4614,
      "##ヤ": 4615,
      "##聞": 4616,
      "##達": 4617,
      "##徳": 4618,
      "##震": 4619,
      "##列": 4620,
      "##亥": 4621,
      "##限": 4622,
      "##樂": 4623,
      "##ஜ": 4624,
      "##东": 4625,
      "##盈": 4626,
      "##豪": 4627,
      "##ෙ": 4628,
      "##ල": 4629,
      "##ම": 4630,
      "##න": 4631,
      "##台": 4632,
      "##団": 4633,
      "##純": 4634,
      "##ქ": 4635,
      "##თ": 4636,
      "##ვ": 4637,
      "##ლ": 4638,
      "##ო": 4639,
      "##ს": 4640,
      "##邡": 4641,
      "##ု": 4642,
      "##ရ": 4643,
      "##მ": 4644,
      "##ზ": 4645,
      "##畅": 4646,
      "##ф": 4647,
      "##騒": 4648,
      "##ು": 4649,
      "##ಕ": 4650,
      "##喜": 4651,
      "##謝": 4652,
      "##蕪": 4653,
      "##近": 4654,
      "##館": 4655,
      "##蓮": 4656,
      "##錢": 4657,
      "##竈": 4658,
      "##陛": 4659,
      "##森": 4660,
      "##執": 4661,
      "##刀": 4662,
      "##鶴": 4663,
      "##մ": 4664,
      "##ض": 4665,
      "##か": 4666,
      "##ŧ": 4667,
      "##央": 4668,
      "##視": 4669,
      "##春": 4670,
      "##節": 4671,
      "##聯": 4672,
      "##歡": 4673,
      "##晚": 4674,
      "##莉": 4675,
      "##岩": 4676,
      "##晓": 4677,
      "##霞": 4678,
      "##Ǝ": 4679,
      "##め": 4680,
      "##と": 4681,
      "##ろ": 4682,
      "##ֲ": 4683,
      "##獄": 4684,
      "##嘉": 4685,
      "##伊": 4686,
      "##ᆸ": 4687,
      "##枝": 4688,
      "##香": 4689,
      "##荡": 4690,
      "##珠": 4691,
      "##ロ": 4692,
      "##ன": 4693,
      "##拳": 4694,
      "##名": 4695,
      "##传": 4696,
      "##号": 4697,
      "##楽": 4698,
      "##目": 4699,
      "##千": 4700,
      "##宗": 4701,
      "##こ": 4702,
      "##倭": 4703,
      "##賦": 4704,
      "##邇": 4705,
      "##ٹ": 4706,
      "##ى": 4707,
      "##ે": 4708,
      "##વ": 4709,
      "##鐘": 4710,
      "##裏": 4711,
      "##雛": 4712,
      "##ེ": 4713,
      "##磐": 4714,
      "##彥": 4715,
      "##ය": 4716,
      "##ත": 4717,
      "##ක": 4718,
      "##饌": 4719,
      "##居": 4720,
      "##浜": 4721,
      "##鳥": 4722,
      "##ᬸ": 4723,
      "##ᬦ": 4724,
      "##ᬂ": 4725,
      "##协": 4726,
      "##超": 4727,
      "##级": 4728,
      "##联": 4729,
      "##赛": 4730,
      "##空": 4731,
      "##窟": 4732,
      "##ᆺ": 4733,
      "##博": 4734,
      "##ज": 4735,
      "##ꜣ": 4736,
      "##ɕ": 4737,
      "##俣": 4738,
      "##ɵ": 4739,
      "##ʌ": 4740,
      "##朗": 4741,
      "##భ": 4742,
      "##ో": 4743,
      "##జ": 4744,
      "##営": 4745,
      "##浅": 4746,
      "##線": 4747,
      "##ю": 4748,
      "##梅": 4749,
      "##陵": 4750,
      "##弉": 4751,
      "##冉": 4752,
      "##尊": 4753,
      "##ほ": 4754,
      "##ʋ": 4755,
      "##ث": 4756,
      "##臣": 4757,
      "##米": 4758,
      "##整": 4759,
      "##備": 4760,
      "##局": 4761,
      "##Д": 4762,
      "##Т": 4763,
      "##昂": 4764,
      "##わ": 4765,
      "##烈": 4766,
      "##賞": 4767,
      "##つ": 4768,
      "##金": 4769,
      "##貨": 4770,
      "##守": 4771,
      "##ァ": 4772,
      "##組": 4773,
      "##ׂ": 4774,
      "##ต": 4775,
      "##ิ": 4776,
      "##ֱ": 4777,
      "##খ": 4778,
      "##翼": 4779,
      "##熙": 4780,
      "##ら": 4781,
      "##桐": 4782,
      "##Κ": 4783,
      "##Α": 4784,
      "##船": 4785,
      "##奉": 4786,
      "##湖": 4787,
      "##活": 4788,
      "##佛": 4789,
      "##盛": 4790,
      "##浩": 4791,
      "##ミ": 4792,
      "##珍": 4793,
      "##Ժ": 4794,
      "##曄": 4795,
      "##通": 4796,
      "##讯": 4797,
      "##取": 4798,
      "##教": 4799,
      "##員": 4800,
      "##壽": 4801,
      "##果": 4802,
      "##北": 4803,
      "##於": 4804,
      "##洪": 4805,
      "##啓": 4806,
      "##福": 4807,
      "##ɽ": 4808,
      "##ّ": 4809,
      "##ɰ": 4810,
      "##栖": 4811,
      "##常": 4812,
      "##腰": 4813,
      "##将": 4814,
      "##児": 4815,
      "##ま": 4816,
      "##速": 4817,
      "##須": 4818,
      "##ས": 4819,
      "##ྟ": 4820,
      "##ན": 4821,
      "##蘭": 4822,
      "##月": 4823,
      "##ヲ": 4824,
      "##想": 4825,
      "##ڈ": 4826,
      "##滝": 4827,
      "##麻": 4828,
      "##未": 4829,
      "##ʎ": 4830,
      "##隊": 4831,
      "##統": 4832,
      "##ਿ": 4833,
      "##ਘ": 4834,
      "##县": 4835,
      "##洛": 4836,
      "##銀": 4837,
      "##幣": 4838,
      "##れ": 4839,
      "##阿": 4840,
      "##舞": 4841,
      "##曲": 4842,
      "##व": 4843,
      "##红": 4844,
      "##色": 4845,
      "##图": 4846,
      "##掛": 4847,
      "##紡": 4848,
      "##織": 4849,
      "##餅": 4850,
      "##簡": 4851,
      "##支": 4852,
      "##思": 4853,
      "##翊": 4854,
      "##қ": 4855,
      "##潮": 4856,
      "##经": 4857,
      "##濤": 4858,
      "##よ": 4859,
      "##П": 4860,
      "##С": 4861,
      "##味": 4862,
      "##庫": 4863,
      "##航": 4864,
      "##ག": 4865,
      "##ོ": 4866,
      "##韶": 4867,
      "##せ": 4868,
      "##寸": 4869,
      "##師": 4870,
      "##ನ": 4871,
      "##ಂ": 4872,
      "##ತ": 4873,
      "##度": 4874,
      "##科": 4875,
      "##竹": 4876,
      "##恐": 4877,
      "##感": 4878,
      "##宝": 4879,
      "##を": 4880,
      "##य": 4881,
      "##合": 4882,
      "##ග": 4883,
      "##ු": 4884,
      "##ව": 4885,
      "##ソ": 4886,
      "##བ": 4887,
      "##ྲ": 4888,
      "##⚠": 4889,
      "##型": 4890,
      "##向": 4891,
      "##埜": 4892,
      "##ং": 4893,
      "##প": 4894,
      "##就": 4895,
      "##要": 4896,
      "##趁": 4897,
      "##現": 4898,
      "##在": 4899,
      "##打": 4900,
      "##婆": 4901,
      "##羅": 4902,
      "##ፍ": 4903,
      "##ቂ": 4904,
      "##ٌ": 4905,
      "##ላ": 4906,
      "##ቱ": 4907,
      "##辺": 4908,
      "##徠": 4909,
      "##ᄄ": 4910,
      "##陰": 4911,
      "##𑄩": 4912,
      "##ʙ": 4913,
      "##逆": 4914,
      "##ი": 4915,
      "##絲": 4916,
      "##探": 4917,
      "##ੂ": 4918,
      "##ਨ": 4919,
      "##ਯ": 4920,
      "##ਸ": 4921,
      "##ხ": 4922,
      "##ტ": 4923,
      "##გ": 4924,
      "##ُ": 4925,
      "##釜": 4926,
      "##声": 4927,
      "##峻": 4928,
      "##經": 4929,
      "##ұ": 4930,
      "##陽": 4931,
      "##ध": 4932,
      "##斐": 4933,
      "##反": 4934,
      "##丸": 4935,
      "##थ": 4936,
      "##শ": 4937,
      "##奎": 4938,
      "##植": 4939,
      "##芸": 4940,
      "##藻": 4941,
      "##夜": 4942,
      "##ɤ": 4943,
      "##զ": 4944,
      "##չ": 4945,
      "##ց": 4946,
      "##振": 4947,
      "##興": 4948,
      "##ാ": 4949,
      "##ക": 4950,
      "##ൃ": 4951,
      "##ഷ": 4952,
      "##可": 4953,
      "##公": 4954,
      "##ⴌ": 4955,
      "##ⴀ": 4956,
      "##ள": 4957,
      "##善": 4958,
      "##燁": 4959,
      "##ြ": 4960,
      "##ီ": 4961,
      "##း": 4962,
      "##ሳ": 4963,
      "##ይ": 4964,
      "##ያ": 4965,
      "##ስ": 4966,
      "##ʑ": 4967,
      "##喬": 4968,
      "##蕉": 4969,
      "##灣": 4970,
      "##գ": 4971,
      "##売": 4972,
      "##休": 4973,
      "##俊": 4974,
      "##Η": 4975,
      "##柏": 4976,
      "##池": 4977,
      "##袋": 4978,
      "##स": 4979,
      "##棋": 4980,
      "##ٿ": 4981,
      "##廈": 4982,
      "##茂": 4983,
      "##叢": 4984,
      "##剣": 4985,
      "##宰": 4986,
      "##შ": 4987,
      "##作": 4988,
      "##増": 4989,
      "##満": 4990,
      "##พ": 4991,
      "##ั": 4992,
      "##น": 4993,
      "##ธ": 4994,
      "##ม": 4995,
      "##ร": 4996,
      "##ก": 4997,
      "##ู": 4998,
      "##防": 4999,
      "##芝": 5000,
      "##梠": 5001,
      "##魚": 5002,
      "##群": 5003,
      "##強": 5004,
      "##番": 5005,
      "##ല": 5006,
      "##Յ": 5007,
      "##Դ": 5008,
      "##Ø": 5009,
      "##针": 5010,
      "##ᅣ": 5011,
      "##も": 5012,
      "##漢": 5013,
      "##章": 5014,
      "##遠": 5015,
      "##ட": 5016,
      "##岐": 5017,
      "##胡": 5018,
      "##荷": 5019,
      "##定": 5020,
      "##非": 5021,
      "##証": 5022,
      "##ڤ": 5023,
      "##维": 5024,
      "##钧": 5025,
      "##智": 5026,
      "##庭": 5027,
      "##照": 5028,
      "##ல": 5029,
      "##ற": 5030,
      "##യ": 5031,
      "##ി": 5032,
      "##譜": 5033,
      "##憲": 5034,
      "##լ": 5035,
      "##怪": 5036,
      "##ᄏ": 5037,
      "##ந": 5038,
      "##潤": 5039,
      "##撮": 5040,
      "##技": 5041,
      "##貝": 5042,
      "##賢": 5043,
      "##蝶": 5044,
      "##承": 5045,
      "##庄": 5046,
      "##琲": 5047,
      "##狼": 5048,
      "##Β": 5049,
      "##ջ": 5050,
      "##至": 5051,
      "##𒌅": 5052,
      "##后": 5053,
      "##魔": 5054,
      "##塔": 5055,
      "##Բ": 5056,
      "##込": 5057,
      "##ふ": 5058,
      "##瑭": 5059,
      "##爾": 5060,
      "##ষ": 5061,
      "##ڠ": 5062,
      "##享": 5063,
      "##ണ": 5064,
      "##ം": 5065,
      "##信": 5066,
      "##霊": 5067,
      "##鐵": 5068,
      "##有": 5069,
      "##意": 5070,
      "##丘": 5071,
      "##舘": 5072,
      "##知": 5073,
      "##慶": 5074,
      "##致": 5075,
      "##暎": 5076,
      "##ྒ": 5077,
      "##ྱ": 5078,
      "##恭": 5079,
      "##ܠ": 5080,
      "##ܝ": 5081,
      "##ܚ": 5082,
      "##ܐ": 5083,
      "##剛": 5084,
      "##錫": 5085,
      "##冑": 5086,
      "##ڌ": 5087,
      "##邉": 5088,
      "##ղ": 5089,
      "##խ": 5090,
      "##њ": 5091,
      "##坊": 5092,
      "##弁": 5093,
      "##ङ": 5094,
      "##无": 5095,
      "##雷": 5096,
      "##ך": 5097,
      "##献": 5098,
      "##勸": 5099,
      "##鹿": 5100,
      "##峨": 5101,
      "##紫": 5102,
      "##矢": 5103,
      "##悟": 5104,
      "##恩": 5105,
      "##賜": 5106,
      "##焼": 5107,
      "##読": 5108,
      "##ᄊ": 5109,
      "##則": 5110,
      "##や": 5111,
      "##頭": 5112,
      "##火": 5113,
      "##書": 5114,
      "##ۆ": 5115,
      "##ڕ": 5116,
      "##童": 5117,
      "##尻": 5118,
      "##心": 5119,
      "##た": 5120,
      "##穂": 5121,
      "##分": 5122,
      "##病": 5123,
      "##擧": 5124,
      "##岸": 5125,
      "##聖": 5126,
      "##母": 5127,
      "##ꦑ": 5128,
      "##濱": 5129,
      "##車": 5130,
      "##あ": 5131,
      "##ᆽ": 5132,
      "##荫": 5133,
      "##ʽ": 5134,
      "##詞": 5135,
      "##ⴐ": 5136,
      "##ⴒ": 5137,
      "##ⴓ": 5138,
      "##ⴊ": 5139,
      "##ⴈ": 5140,
      "##ħ": 5141,
      "##戀": 5142,
      "##苗": 5143,
      "##策": 5144,
      "##縄": 5145,
      "##言": 5146,
      "##ི": 5147,
      "##མ": 5148,
      "##ྩ": 5149,
      "##龍": 5150,
      "##叔": 5151,
      "##友": 5152,
      "##報": 5153,
      "##ٽ": 5154,
      "##ᅫ": 5155,
      "##ঁ": 5156,
      "##共": 5157,
      "##ဂ": 5158,
      "##覚": 5159,
      "##令": 5160,
      "##指": 5161,
      "##ヶ": 5162,
      "##端": 5163,
      "##港": 5164,
      "##応": 5165,
      "##九": 5166,
      "##敷": 5167,
      "##ย": 5168,
      "##ภ": 5169,
      "##俭": 5170,
      "##魏": 5171,
      "##漣": 5172,
      "##叟": 5173,
      "##ⵎ": 5174,
      "##ⵖ": 5175,
      "##ⵔ": 5176,
      "##ⴱ": 5177,
      "##出": 5178,
      "##画": 5179,
      "##犬": 5180,
      "##叉": 5181,
      "##ੋ": 5182,
      "##ੜ": 5183,
      "##来": 5184,
      "##ཙ": 5185,
      "##ʦ": 5186,
      "##由": 5187,
      "##雇": 5188,
      "##频": 5189,
      "##绍": 5190,
      "##坤": 5191,
      "##Г": 5192,
      "##У": 5193,
      "##瀧": 5194,
      "##競": 5195,
      "##ད": 5196,
      "##孫": 5197,
      "##庁": 5198,
      "##鉄": 5199,
      "##苾": 5200,
      "##何": 5201,
      "##溪": 5202,
      "##翁": 5203,
      "##末": 5204,
      "##交": 5205,
      "##巻": 5206,
      "##初": 5207,
      "##相": 5208,
      "##ྣ": 5209,
      "##緈": 5210,
      "##朝": 5211,
      "##ਗ": 5212,
      "##ਹ": 5213,
      "##ਬ": 5214,
      "##甕": 5215,
      "##槌": 5216,
      "##袞": 5217,
      "##彌": 5218,
      "##陀": 5219,
      "##更": 5220,
      "##酎": 5221,
      "##ᠭ": 5222,
      "##ᠳ": 5223,
      "##岱": 5224,
      "##納": 5225,
      "##順": 5226,
      "##স": 5227,
      "##届": 5228,
      "##残": 5229,
      "##疾": 5230,
      "##匹": 5231,
      "##克": 5232,
      "##运": 5233,
      "##动": 5234,
      "##宴": 5235,
      "##ං": 5236,
      "##හ": 5237,
      "##ማ": 5238,
      "##ɨ": 5239,
      "##黄": 5240,
      "##邊": 5241,
      "##背": 5242,
      "##六": 5243,
      "##茹": 5244,
      "##堅": 5245,
      "##失": 5246,
      "##症": 5247,
      "##ս": 5248,
      "##幾": 5249,
      "##丁": 5250,
      "##己": 5251,
      "##阳": 5252,
      "##悠": 5253,
      "##云": 5254,
      "##迪": 5255,
      "##床": 5256,
      "##攻": 5257,
      "##撃": 5258,
      "##放": 5259,
      "##送": 5260,
      "##ە": 5261,
      "##ڵ": 5262,
      "##ަ": 5263,
      "##ލ": 5264,
      "##ި": 5265,
      "##ކ": 5266,
      "##ު": 5267,
      "##據": 5268,
      "##期": 5269,
      "##塊": 5270,
      "##魂": 5271,
      "##駐": 5272,
      "##屯": 5273,
      "##暢": 5274,
      "##𑄬": 5275,
      "##𑄋": 5276,
      "##亭": 5277,
      "##急": 5278,
      "##便": 5279,
      "##滋": 5280,
      "##々": 5281,
      "##助": 5282,
      "##曽": 5283,
      "##က": 5284,
      "##ျ": 5285,
      "##ွ": 5286,
      "##န": 5287,
      "##て": 5288,
      "##勞": 5289,
      "##盟": 5290,
      "##架": 5291,
      "##菜": 5292,
      "##健": 5293,
      "##狭": 5294,
      "##华": 5295,
      "##眼": 5296,
      "##镜": 5297,
      "##蛇": 5298,
      "##庸": 5299,
      "##勳": 5300,
      "##ֻ": 5301,
      "##伴": 5302,
      "##飼": 5303,
      "##猛": 5304,
      "##進": 5305,
      "##縣": 5306,
      "##垣": 5307,
      "##භ": 5308,
      "##使": 5309,
      "##霏": 5310,
      "##麿": 5311,
      "##象": 5312,
      "##戔": 5313,
      "##嗚": 5314,
      "##関": 5315,
      "##約": 5316,
      "##ു": 5317,
      "##ര": 5318,
      "##സ": 5319,
      "##晶": 5320,
      "##煥": 5321,
      "##ล": 5322,
      "##ุ": 5323,
      "##ส": 5324,
      "##บ": 5325,
      "##ท": 5326,
      "##ศ": 5327,
      "##哲": 5328,
      "##齋": 5329,
      "##転": 5330,
      "##幌": 5331,
      "##熊": 5332,
      "##淳": 5333,
      "##寮": 5334,
      "##ಡ": 5335,
      "##妃": 5336,
      "##幹": 5337,
      "##積": 5338,
      "##ᬲ": 5339,
      "##ᬃ": 5340,
      "##郡": 5341,
      "##燦": 5342,
      "##多": 5343,
      "##艺": 5344,
      "##功": 5345,
      "##易": 5346,
      "##軒": 5347,
      "##结": 5348,
      "##性": 5349,
      "##洙": 5350,
      "##能": 5351,
      "##袁": 5352,
      "##惠": 5353,
      "##以": 5354,
      "##齊": 5355,
      "##〇": 5356,
      "##變": 5357,
      "##梁": 5358,
      "##马": 5359,
      "##德": 5360,
      "##瞳": 5361,
      "##に": 5362,
      "##逢": 5363,
      "##િ": 5364,
      "##લ": 5365,
      "##ێ": 5366,
      "##狩": 5367,
      "##撲": 5368,
      "##蓁": 5369,
      "##跡": 5370,
      "##伏": 5371,
      "##嶽": 5372,
      "##ታ": 5373,
      "##ቸ": 5374,
      "##源": 5375,
      "##因": 5376,
      "##沖": 5377,
      "##浪": 5378,
      "##ం": 5379,
      "##ధ": 5380,
      "##ਵ": 5381,
      "##鈿": 5382,
      "##诞": 5383,
      "##节": 5384,
      "##産": 5385,
      "##回": 5386,
      "##彫": 5387,
      "##刻": 5388,
      "##展": 5389,
      "##ড": 5390,
      "##ঙ": 5391,
      "##ɦ": 5392,
      "##藏": 5393,
      "##ᬵ": 5394,
      "##ᬕ": 5395,
      "##镇": 5396,
      "##桃": 5397,
      "##ถ": 5398,
      "##ค": 5399,
      "##โ": 5400,
      "##ี": 5401,
      "##总": 5402,
      "##员": 5403,
      "##規": 5404,
      "##ಯ": 5405,
      "##旺": 5406,
      "##梨": 5407,
      "##培": 5408,
      "##禹": 5409,
      "##蛙": 5410,
      "##笙": 5411,
      "##笠": 5412,
      "##細": 5413,
      "##亜": 5414,
      "##例": 5415,
      "##任": 5416,
      "##管": 5417,
      "##碁": 5418,
      "##経": 5419,
      "##体": 5420,
      "##連": 5421,
      "##濃": 5422,
      "##奇": 5423,
      "##妙": 5424,
      "##冒": 5425,
      "##険": 5426,
      "##坪": 5427,
      "##殻": 5428,
      "##葛": 5429,
      "##滑": 5430,
      "##苔": 5431,
      "##ଡ": 5432,
      "##終": 5433,
      "##ⴼ": 5434,
      "##ⵓ": 5435,
      "##ⵙ": 5436,
      "##昭": 5437,
      "##艦": 5438,
      "##洲": 5439,
      "##圓": 5440,
      "##解": 5441,
      "##充": 5442,
      "##笔": 5443,
      "##记": 5444,
      "##級": 5445,
      "##範": 5446,
      "##稲": 5447,
      "##尔": 5448,
      "##齐": 5449,
      "##斯": 5450,
      "##紘": 5451,
      "##莞": 5452,
      "##ʹ": 5453,
      "##供": 5454,
      "##ூ": 5455,
      "##湯": 5456,
      "##議": 5457,
      "##訓": 5458,
      "##倫": 5459,
      "##騨": 5460,
      "##災": 5461,
      "##対": 5462,
      "##舎": 5463,
      "##ᠠ": 5464,
      "##ᠯ": 5465,
      "##ᠪ": 5466,
      "##姫": 5467,
      "##匠": 5468,
      "##覇": 5469,
      "##պ": 5470,
      "##斎": 5471,
      "##計": 5472,
      "##算": 5473,
      "##洞": 5474,
      "##圏": 5475,
      "##郊": 5476,
      "##緑": 5477,
      "##全": 5478,
      "##轉": 5479,
      "##ɖ": 5480,
      "##嘘": 5481,
      "##甘": 5482,
      "##同": 5483,
      "##篠": 5484,
      "##凌": 5485,
      "##崇": 5486,
      "##ུ": 5487,
      "##集": 5488,
      "##習": 5489,
      "##噌": 5490,
      "##汁": 5491,
      "##ⴽ": 5492,
      "##ⵄ": 5493,
      "##ے": 5494,
      "##ਮ": 5495,
      "##ਖ": 5496,
      "##娘": 5497,
      "##説": 5498,
      "##ඩ": 5499,
      "##切": 5500,
      "##ง": 5501,
      "##ห": 5502,
      "##ว": 5503,
      "##ⲓ": 5504,
      "##ⲱ": 5505,
      "##ⲙ": 5506,
      "##巢": 5507,
      "##咲": 5508,
      "##魯": 5509,
      "##倍": 5510,
      "##ບ": 5511,
      "##ຸ": 5512,
      "##ນ": 5513,
      "##ພ": 5514,
      "##ັ": 5515,
      "##葱": 5516,
      "##К": 5517,
      "##乎": 5518,
      "##甫": 5519,
      "##偵": 5520,
      "##爺": 5521,
      "##圣": 5522,
      "##格": 5523,
      "##銅": 5524,
      "##ყ": 5525,
      "##湾": 5526,
      "##ལ": 5527,
      "##ә": 5528,
      "##Ω": 5529,
      "##ᇂ": 5530,
      "##慈": 5531,
      "##鶏": 5532,
      "##М": 5533,
      "##🎉": 5534,
      "##ไ": 5535,
      "##俗": 5536,
      "##မ": 5537,
      "##လ": 5538,
      "##ူ": 5539,
      "##ိ": 5540,
      "##駿": 5541,
      "##座": 5542,
      "##墳": 5543,
      "##瑰": 5544,
      "##玫": 5545,
      "##黨": 5546,
      "##椋": 5547,
      "##又": 5548,
      "##穎": 5549,
      "##ђ": 5550,
      "##勢": 5551,
      "##ɲ": 5552,
      "##ճ": 5553,
      "##շ": 5554,
      "##ᬾ": 5555,
      "##幻": 5556,
      "##砂": 5557,
      "##开": 5558,
      "##業": 5559,
      "##隈": 5560,
      "##埼": 5561,
      "##靖": 5562,
      "##է": 5563,
      "##虎": 5564,
      "##添": 5565,
      "##恵": 5566,
      "##粉": 5567,
      "##尋": 5568,
      "##隠": 5569,
      "##ڊ": 5570,
      "##ڄ": 5571,
      "##च": 5572,
      "##衣": 5573,
      "##ಶ": 5574,
      "##娱": 5575,
      "##乐": 5576,
      "##万": 5577,
      "##起": 5578,
      "##ቃ": 5579,
      "##ብ": 5580,
      "##庵": 5581,
      "##ɣ": 5582,
      "##滸": 5583,
      "##傳": 5584,
      "##昇": 5585,
      "##墜": 5586,
      "##风": 5587,
      "##綱": 5588,
      "##农": 5589,
      "##场": 5590,
      "##ප": 5591,
      "##တ": 5592,
      "##ပ": 5593,
      "##ံ": 5594,
      "##丹": 5595,
      "##兄": 5596,
      "##Ф": 5597,
      "##畿": 5598,
      "##Л": 5599,
      "##瑤": 5600,
      "##柱": 5601,
      "##ڭ": 5602,
      "##വ": 5603,
      "##丽": 5604,
      "##ີ": 5605,
      "##ສ": 5606,
      "##ຫ": 5607,
      "##ʈ": 5608,
      "##慢": 5609,
      "##寇": 5610,
      "##號": 5611,
      "##受": 5612,
      "##ை": 5613,
      "##ಳ": 5614,
      "##ಬ": 5615,
      "##制": 5616,
      "##侠": 5617,
      "##器": 5618,
      "##週": 5619,
      "##ֆ": 5620,
      "##禮": 5621,
      "##拜": 5622,
      "##参": 5623,
      "##房": 5624,
      "##鮮": 5625,
      "##鋼": 5626,
      "##ກ": 5627,
      "##祖": 5628,
      "##拉": 5629,
      "##兵": 5630,
      "##จ": 5631,
      "##ǃ": 5632,
      "##ᠵ": 5633,
      "##ዕ": 5634,
      "##ዝ": 5635,
      "##開": 5636,
      "##発": 5637,
      "##紗": 5638,
      "##乃": 5639,
      "##句": 5640,
      "##简": 5641,
      "##響": 5642,
      "##კ": 5643,
      "##េ": 5644,
      "##众": 5645,
      "##快": 5646,
      "##引": 5647,
      "##邑": 5648,
      "##存": 5649,
      "##抄": 5650,
      "##淵": 5651,
      "##糸": 5652,
      "##珪": 5653,
      "##ฬ": 5654,
      "##ณ": 5655,
      "##歩": 5656,
      "##პ": 5657,
      "##ბ": 5658,
      "##ꦮ": 5659,
      "##ꦶ": 5660,
      "##漫": 5661,
      "##藝": 5662,
      "##ڻ": 5663,
      "##ʧ": 5664,
      "##ⲟ": 5665,
      "##問": 5666,
      "##恪": 5667,
      "##仑": 5668,
      "##决": 5669,
      "##半": 5670,
      "##運": 5671,
      "##蘇": 5672,
      "##დ": 5673,
      "##𒆠": 5674,
      "##牙": 5675,
      "##醍": 5676,
      "##醐": 5677,
      "##ձ": 5678,
      "##堕": 5679,
      "##死": 5680,
      "##築": 5681,
      "##陶": 5682,
      "##磁": 5683,
      "##ජ": 5684,
      "##ණ": 5685,
      "##规": 5686,
      "##划": 5687,
      "##览": 5688,
      "##馆": 5689,
      "##మ": 5690,
      "##语": 5691,
      "##考": 5692,
      "##试": 5693,
      "##క": 5694,
      "##才": 5695,
      "##旋": 5696,
      "##厥": 5697,
      "##薩": 5698,
      "##ੇ": 5699,
      "##ң": 5700,
      "##ང": 5701,
      "##耳": 5702,
      "##铁": 5703,
      "##亦": 5704,
      "##雒": 5705,
      "##煕": 5706,
      "##札": 5707,
      "##ꠣ": 5708,
      "##ꠢ": 5709,
      "##চ": 5710,
      "##郞": 5711,
      "##ɺ": 5712,
      "##Υ": 5713,
      "##沽": 5714,
      "##協": 5715,
      "##仮": 5716,
      "##ֿ": 5717,
      "##ਤ": 5718,
      "##畑": 5719,
      "##允": 5720,
      "##弧": 5721,
      "##飩": 5722,
      "##狂": 5723,
      "##ܒ": 5724,
      "##鲁": 5725,
      "##綾": 5726,
      "##ө": 5727,
      "##ҝ": 5728,
      "##泳": 5729,
      "##夏": 5730,
      "##幫": 5731,
      "##极": 5732,
      "##略": 5733,
      "##函": 5734,
      "##џ": 5735,
      "##殖": 5736,
      "##装": 5737,
      "##貫": 5738,
      "##樫": 5739,
      "##ゥ": 5740,
      "##ⵀ": 5741,
      "##ⴻ": 5742,
      "##ⵏ": 5743,
      "##ै": 5744,
      "##桓": 5745,
      "##予": 5746,
      "##仲": 5747,
      "##ข": 5748,
      "##矩": 5749,
      "##ɧ": 5750,
      "##属": 5751,
      "##鉱": 5752,
      "##資": 5753,
      "##構": 5754,
      "##ਈ": 5755,
      "##ዲ": 5756,
      "##ራ": 5757,
      "##ܥ": 5758,
      "##ܘ": 5759,
      "##ܪ": 5760,
      "##ܬ": 5761,
      "##奨": 5762,
      "##ړ": 5763,
      "##ۍ": 5764,
      "##Є": 5765,
      "##ྐ": 5766,
      "##延": 5767,
      "##鼓": 5768,
      "##ള": 5769,
      "##ذ": 5770,
      "##扇": 5771,
      "##菅": 5772,
      "##О": 5773,
      "##Е": 5774,
      "##並": 5775,
      "##跳": 5776,
      "##白": 5777,
      "##剅": 5778,
      "##毛": 5779,
      "##様": 5780,
      "##環": 5781,
      "##甸": 5782,
      "##乍": 5783,
      "##爵": 5784,
      "##望": 5785,
      "##仔": 5786,
      "##檔": 5787,
      "##ച": 5788,
      "##郵": 5789,
      "##熱": 5790,
      "##孁": 5791,
      "##敏": 5792,
      "##第": 5793,
      "##嶺": 5794,
      "##ใ": 5795,
      "##牧": 5796,
      "##詩": 5797,
      "##姸": 5798,
      "##ុ": 5799,
      "##ជ": 5800,
      "##आ": 5801,
      "##ⵢ": 5802,
      "##踊": 5803,
      "##臼": 5804,
      "##埈": 5805,
      "##鎔": 5806,
      "##諾": 5807,
      "##辞": 5808,
      "##萩": 5809,
      "##ـ": 5810,
      "##ৗ": 5811,
      "##ধ": 5812,
      "##贤": 5813,
      "##幽": 5814,
      "##带": 5815,
      "##氣": 5816,
      "##榜": 5817,
      "##図": 5818,
      "##特": 5819,
      "##容": 5820,
      "##臺": 5821,
      "##ҍ": 5822,
      "##郁": 5823,
      "##ሾ": 5824,
      "##መ": 5825,
      "##誌": 5826,
      "##Я": 5827,
      "##曉": 5828,
      "##飢": 5829,
      "##隐": 5830,
      "##亞": 5831,
      "##鹤": 5832,
      "##斋": 5833,
      "##ۋ": 5834,
      "##බ": 5835,
      "##ژ": 5836,
      "##施": 5837,
      "##菲": 5838,
      "##毗": 5839,
      "##射": 5840,
      "##匱": 5841,
      "##深": 5842,
      "##ഭ": 5843,
      "##ന": 5844,
      "##ಣ": 5845,
      "##օ": 5846,
      "##衢": 5847,
      "##飯": 5848,
      "##辰": 5849,
      "##ှ": 5850,
      "##✔": 5851,
      "##গ": 5852,
      "##畝": 5853,
      "##诏": 5854,
      "##繩": 5855,
      "##候": 5856,
      "##哈": 5857,
      "##券": 5858,
      "##仪": 5859,
      "##儀": 5860,
      "##ኢ": 5861,
      "##ት": 5862,
      "##ዮ": 5863,
      "##ጵ": 5864,
      "##ⲁ": 5865,
      "##ⲣ": 5866,
      "##税": 5867,
      "##牛": 5868,
      "##伦": 5869,
      "##ອ": 5870,
      "##ટ": 5871,
      "##檎": 5872,
      "##検": 5873,
      "##晗": 5874,
      "##门": 5875,
      "##ǂ": 5876,
      "##去": 5877,
      "##飞": 5878,
      "##桂": 5879,
      "##挂": 5880,
      "##帅": 5881,
      "##父": 5882,
      "##桑": 5883,
      "##ဝ": 5884,
      "##渕": 5885,
      "##煮": 5886,
      "##ɗ": 5887,
      "##槻": 5888,
      "##養": 5889,
      "##曹": 5890,
      "##賔": 5891,
      "##磯": 5892,
      "##ೖ": 5893,
      "##柳": 5894,
      "##毅": 5895,
      "##Ξ": 5896,
      "##ɮ": 5897,
      "##ሊ": 5898,
      "##ና": 5899,
      "##兌": 5900,
      "##旭": 5901,
      "##ও": 5902,
      "##っ": 5903,
      "##ਜ": 5904,
      "##關": 5905,
      "##峰": 5906,
      "##試": 5907,
      "##ཕ": 5908,
      "##Х": 5909,
      "##ূ": 5910,
      "##Φ": 5911,
      "##姦": 5912,
      "##ې": 5913,
      "##养": 5914,
      "##梓": 5915,
      "##ফ": 5916,
      "##ღ": 5917,
      "##筠": 5918,
      "##⬆": 5919,
      "##鷦": 5920,
      "##鷯": 5921,
      "##ശ": 5922,
      "##ഗ": 5923,
      "##鉾": 5924,
      "##官": 5925,
      "##烏": 5926,
      "##帽": 5927,
      "##游": 5928,
      "##敎": 5929,
      "##医": 5930,
      "##歯": 5931,
      "##街": 5932,
      "##占": 5933,
      "##拓": 5934,
      "##电": 5935,
      "##视": 5936,
      "##欢": 5937,
      "##ഞ": 5938,
      "##驒": 5939,
      "##昊": 5940,
      "##丝": 5941,
      "##駒": 5942,
      "##滿": 5943,
      "##紅": 5944,
      "##宓": 5945,
      "##絵": 5946,
      "##圭": 5947,
      "##完": 5948,
      "##汝": 5949,
      "##ද": 5950,
      "##料": 5951,
      "##尼": 5952,
      "##念": 5953,
      "##碟": 5954,
      "##ユ": 5955,
      "##怒": 5956,
      "##鳴": 5957,
      "##ඟ": 5958,
      "##讚": 5959,
      "##ꠜ": 5960,
      "##ꠉ": 5961,
      "##ુ": 5962,
      "##જ": 5963,
      "##ર": 5964,
      "##ી": 5965,
      "##转": 5966,
      "##邯": 5967,
      "##贊": 5968,
      "##顶": 5969,
      "##衡": 5970,
      "##芳": 5971,
      "##ܗ": 5972,
      "##ܕ": 5973,
      "##傑": 5974,
      "##雀": 5975,
      "##ထ": 5976,
      "##వ": 5977,
      "##ు": 5978,
      "##礼": 5979,
      "##ஸ": 5980,
      "##版": 5981,
      "##ʤ": 5982,
      "##復": 5983,
      "##帶": 5984,
      "##寧": 5985,
      "##ާ": 5986,
      "##ެ": 5987,
      "##拯": 5988,
      "##贝": 5989,
      "##娜": 5990,
      "##ಟ": 5991,
      "##ꦢ": 5992,
      "##畵": 5993,
      "##ཇ": 5994,
      "##左": 5995,
      "##叡": 5996,
      "##舟": 5997,
      "##ぬ": 5998,
      "##曷": 5999,
      "##巨": 6000,
      "##働": 6001,
      "##є": 6002,
      "##楚": 6003,
      "##姬": 6004,
      "##冨": 6005,
      "##️": 6006,
      "##顕": 6007,
      "##妓": 6008,
      "##入": 6009,
      "##茅": 6010,
      "##蘊": 6011,
      "##各": 6012,
      "##滄": 6013,
      "##録": 6014,
      "##肥": 6015,
      "##毘": 6016,
      "##質": 6017,
      "##ः": 6018,
      "##崛": 6019,
      "##আ": 6020,
      "##衆": 6021,
      "##選": 6022,
      "##挙": 6023,
      "##ਫ": 6024,
      "##ஞ": 6025,
      "##芥": 6026,
      "##肇": 6027,
      "##ʉ": 6028,
      "##歴": 6029,
      "##წ": 6030,
      "##ფ": 6031,
      "##উ": 6032,
      "##帯": 6033,
      "##朋": 6034,
      "##闘": 6035,
      "##編": 6036,
      "##ʂ": 6037,
      "##鏡": 6038,
      "##淑": 6039,
      "##詣": 6040,
      "##ঞ": 6041,
      "##睦": 6042,
      "##監": 6043,
      "##鑑": 6044,
      "##欧": 6045,
      "##ྨ": 6046,
      "##救": 6047,
      "##旽": 6048,
      "##齦": 6049,
      "##ৃ": 6050,
      "##ভ": 6051,
      "##ཟ": 6052,
      "##芑": 6053,
      "##濟": 6054,
      "##澮": 6055,
      "##腓": 6056,
      "##फ": 6057,
      "##兰": 6058,
      "##ϟ": 6059,
      "##အ": 6060,
      "##ছ": 6061,
      "##祥": 6062,
      "##师": 6063,
      "##范": 6064,
      "##鑴": 6065,
      "##布": 6066,
      "##ኩ": 6067,
      "##ሪ": 6068,
      "##ໍ": 6069,
      "##穴": 6070,
      "##郷": 6071,
      "##喝": 6072,
      "##淚": 6073,
      "##差": 6074,
      "##虫": 6075,
      "##ɸ": 6076,
      "##ⴳ": 6077,
      "##ⵍ": 6078,
      "##ⵜ": 6079,
      "##悦": 6080,
      "##刊": 6081,
      "##先": 6082,
      "##彰": 6083,
      "##爲": 6084,
      "##杜": 6085,
      "##ͅ": 6086,
      "##ਥ": 6087,
      "##發": 6088,
      "##亨": 6089,
      "##櫃": 6090,
      "##匂": 6091,
      "##勉": 6092,
      "##不": 6093,
      "##簫": 6094,
      "##禰": 6095,
      "##琪": 6096,
      "##ꠥ": 6097,
      "##ꠘ": 6098,
      "##ꠝ": 6099,
      "##寓": 6100,
      "##醉": 6101,
      "##穆": 6102,
      "##庾": 6103,
      "##詳": 6104,
      "##卉": 6105,
      "##覽": 6106,
      "##ླ": 6107,
      "##付": 6108,
      "##按": 6109,
      "##蹊": 6110,
      "##置": 6111,
      "##𐎼": 6112,
      "##𐎡": 6113,
      "##𐎺": 6114,
      "##庶": 6115,
      "##ા": 6116,
      "##ં": 6117,
      "##ગ": 6118,
      "##ડ": 6119,
      "##靜": 6120,
      "##鎬": 6121,
      "##耉": 6122,
      "##ⲕ": 6123,
      "##忘": 6124,
      "##稽": 6125,
      "##ద": 6126,
      "##ూ": 6127,
      "##弗": 6128,
      "##麩": 6129,
      "##ྗ": 6130,
      "##强": 6131,
      "##絃": 6132,
      "##he": 6133,
      "##er": 6134,
      "the": 6135,
      "##in": 6136,
      "##an": 6137,
      "##on": 6138,
      "##or": 6139,
      "##ed": 6140,
      "##es": 6141,
      "##ar": 6142,
      "##at": 6143,
      "##en": 6144,
      "##al": 6145,
      "in": 6146,
      "an": 6147,
      "of": 6148,
      "##as": 6149,
      "##it": 6150,
      "##is": 6151,
      "##ic": 6152,
      "and": 6153,
      "##RB": 6154,
      "##ou": 6155,
      "##ing": 6156,
      "##re": 6157,
      "##om": 6158,
      "##ion": 6159,
      "to": 6160,
      "is": 6161,
      "##il": 6162,
      "##el": 6163,
      "##ent": 6164,
      "##am": 6165,
      "##st": 6166,
      "was": 6167,
      "##ec": 6168,
      "##ol": 6169,
      "19": 6170,
      "##et": 6171,
      "RRB": 6172,
      "LRB": 6173,
      "##ro": 6174,
      "The": 6175,
      "##ur": 6176,
      "on": 6177,
      "##le": 6178,
      "##ad": 6179,
      "for": 6180,
      "##ac": 6181,
      "##all": 6182,
      "##ir": 6183,
      "th": 6184,
      "##iv": 6185,
      "20": 6186,
      "##em": 6187,
      "##ter": 6188,
      "##ay": 6189,
      "##id": 6190,
      "##ow": 6191,
      "as": 6192,
      "##ot": 6193,
      "##od": 6194,
      "##ig": 6195,
      "##ation": 6196,
      "##th": 6197,
      "##ul": 6198,
      "st": 6199,
      "##us": 6200,
      "##and": 6201,
      "##ch": 6202,
      "##im": 6203,
      "##un": 6204,
      "by": 6205,
      "##ber": 6206,
      "##ut": 6207,
      "##ist": 6208,
      "##ce": 6209,
      "##ith": 6210,
      "##oun": 6211,
      "##ge": 6212,
      "##est": 6213,
      "##rom": 6214,
      "##ers": 6215,
      "##ly": 6216,
      "al": 6217,
      "wh": 6218,
      "##ct": 6219,
      "with": 6220,
      "##os": 6221,
      "##ov": 6222,
      "##um": 6223,
      "##ep": 6224,
      "be": 6225,
      "##her": 6226,
      "from": 6227,
      "##ian": 6228,
      "at": 6229,
      "##ts": 6230,
      "or": 6231,
      "##op": 6232,
      "com": 6233,
      "##ia": 6234,
      "##ain": 6235,
      "In": 6236,
      "201": 6237,
      "##oc": 6238,
      "##ity": 6239,
      "##ev": 6240,
      "##av": 6241,
      "##art": 6242,
      "##ap": 6243,
      "##ess": 6244,
      "con": 6245,
      "pro": 6246,
      "##ies": 6247,
      "##mer": 6248,
      "that": 6249,
      "##orn": 6250,
      "are": 6251,
      "##ill": 6252,
      "##ate": 6253,
      "##ary": 6254,
      "St": 6255,
      "##ri": 6256,
      "##ak": 6257,
      "##ab": 6258,
      "He": 6259,
      "##ag": 6260,
      "##ich": 6261,
      "he": 6262,
      "##ode": 6263,
      "his": 6264,
      "pl": 6265,
      "##if": 6266,
      "re": 6267,
      "##ect": 6268,
      "##ear": 6269,
      "##ember": 6270,
      "##ard": 6271,
      "##our": 6272,
      "200": 6273,
      "##ud": 6274,
      "##ame": 6275,
      "It": 6276,
      "##ew": 6277,
      "##ated": 6278,
      "code": 6279,
      "##ub": 6280,
      "Ch": 6281,
      "##ip": 6282,
      "##ish": 6283,
      "##ort": 6284,
      "##ican": 6285,
      "##ust": 6286,
      "code_": 6287,
      "##ld": 6288,
      "##ran": 6289,
      "##igh": 6290,
      "ch": 6291,
      "born": 6292,
      "##se": 6293,
      "##ong": 6294,
      "##own": 6295,
      "##ment": 6296,
      "Un": 6297,
      "de": 6298,
      "##ast": 6299,
      "##ost": 6300,
      "un": 6301,
      "##ive": 6302,
      "sp": 6303,
      "Amer": 6304,
      "ex": 6305,
      "##ount": 6306,
      "##ell": 6307,
      "which": 6308,
      "##mall": 6309,
      "##ore": 6310,
      "##rit": 6311,
      "it": 6312,
      "##pp": 6313,
      "##ant": 6314,
      "##ound": 6315,
      "##gh": 6316,
      "##so": 6317,
      "##ord": 6318,
      "18": 6319,
      "##ine": 6320,
      "##land": 6321,
      "##uc": 6322,
      "##og": 6323,
      "##ally": 6324,
      "American": 6325,
      "##ere": 6326,
      "##irst": 6327,
      "sh": 6328,
      "en": 6329,
      "also": 6330,
      "##ra": 6331,
      "##ue": 6332,
      "##ack": 6333,
      "di": 6334,
      "##end": 6335,
      "us": 6336,
      "ar": 6337,
      "kn": 6338,
      "first": 6339,
      "##ork": 6340,
      "##ther": 6341,
      "##ie": 6342,
      "##res": 6343,
      "##ver": 6344,
      "ser": 6345,
      "has": 6346,
      "##ates": 6347,
      "199": 6348,
      "comp": 6349,
      "se": 6350,
      "##man": 6351,
      "Mar": 6352,
      "##ial": 6353,
      "play": 6354,
      "##ey": 6355,
      "##ure": 6356,
      "##ry": 6357,
      "##ical": 6358,
      "known": 6359,
      "##ok": 6360,
      "##qu": 6361,
      "were": 6362,
      "##ond": 6363,
      "##ru": 6364,
      "##small": 6365,
      "code_small": 6366,
      "##ited": 6367,
      "##ass": 6368,
      "##ous": 6369,
      "who": 6370,
      "##ave": 6371,
      "##age": 6372,
      "##mp": 6373,
      "whe": 6374,
      "##ions": 6375,
      "Al": 6376,
      "##ome": 6377,
      "su": 6378,
      "##fter": 6379,
      "##ough": 6380,
      "##tern": 6381,
      "comm": 6382,
      "##cl": 6383,
      "198": 6384,
      "cl": 6385,
      "An": 6386,
      "##ight": 6387,
      "##out": 6388,
      "one": 6389,
      "le": 6390,
      "##eb": 6391,
      "##ang": 6392,
      "##ric": 6393,
      "##ide": 6394,
      "##der": 6395,
      "not": 6396,
      "##iz": 6397,
      "rel": 6398,
      "##per": 6399,
      "act": 6400,
      "##ug": 6401,
      "##une": 6402,
      "##oll": 6403,
      "##ater": 6404,
      "##arge": 6405,
      "ab": 6406,
      "197": 6407,
      "bec": 6408,
      "##ime": 6409,
      "United": 6410,
      "ur": 6411,
      "En": 6412,
      "##ational": 6413,
      "Th": 6414,
      "year": 6415,
      "rec": 6416,
      "##amp": 6417,
      "int": 6418,
      "##wo": 6419,
      "part": 6420,
      "Ar": 6421,
      "##ff": 6422,
      "its": 6423,
      "##ree": 6424,
      "ad": 6425,
      "##ern": 6426,
      "##00": 6427,
      "##ign": 6428,
      "can": 6429,
      "##wn": 6430,
      "##ice": 6431,
      "her": 6432,
      "##ens": 6433,
      "cont": 6434,
      "url": 6435,
      "##ased": 6436,
      "##ock": 6437,
      "##ach": 6438,
      "##ory": 6439,
      "##ace": 6440,
      "##ik": 6441,
      "have": 6442,
      "##ib": 6443,
      "gr": 6444,
      "##hed": 6445,
      "had": 6446,
      "##ence": 6447,
      "man": 6448,
      "fil": 6449,
      "res": 6450,
      "tr": 6451,
      "##pt": 6452,
      "##aw": 6453,
      "Fran": 6454,
      "after": 6455,
      "196": 6456,
      "app": 6457,
      "##ade": 6458,
      "##ounty": 6459,
      "##ult": 6460,
      "pr": 6461,
      "New": 6462,
      "##clud": 6463,
      "On": 6464,
      "##outh": 6465,
      "##orth": 6466,
      "##orld": 6467,
      "##pr": 6468,
      "States": 6469,
      "their": 6470,
      "##ubl": 6471,
      "mov": 6472,
      "but": 6473,
      "##ob": 6474,
      "##ild": 6475,
      "other": 6476,
      "##ire": 6477,
      "##ral": 6478,
      "this": 6479,
      "##orm": 6480,
      "two": 6481,
      "includ": 6482,
      "##oot": 6483,
      "per": 6484,
      "all": 6485,
      "##io": 6486,
      "##les": 6487,
      "sc": 6488,
      "##ince": 6489,
      "##eral": 6490,
      "ag": 6491,
      "most": 6492,
      "##we": 6493,
      "##uring": 6494,
      "##rop": 6495,
      "##ark": 6496,
      "##ward": 6497,
      "##ail": 6498,
      "Le": 6499,
      "cent": 6500,
      "##act": 6501,
      "##ations": 6502,
      "##ivers": 6503,
      "Jan": 6504,
      "##ath": 6505,
      "Eng": 6506,
      "pol": 6507,
      "te": 6508,
      "ac": 6509,
      "work": 6510,
      "##large": 6511,
      "serv": 6512,
      "code_large": 6513,
      "call": 6514,
      "city": 6515,
      "##ober": 6516,
      "##ition": 6517,
      "##fer": 6518,
      "She": 6519,
      "194": 6520,
      "##ren": 6521,
      "dis": 6522,
      "May": 6523,
      "##old": 6524,
      "195": 6525,
      "rep": 6526,
      "used": 6527,
      "##ons": 6528,
      "been": 6529,
      "reg": 6530,
      "died": 6531,
      "As": 6532,
      "##ely": 6533,
      "##ball": 6534,
      "pe": 6535,
      "##ision": 6536,
      "##oy": 6537,
      "loc": 6538,
      "into": 6539,
      "##uary": 6540,
      "##ans": 6541,
      "##ite": 6542,
      "##ept": 6543,
      "##te": 6544,
      "##ake": 6545,
      "found": 6546,
      "##ind": 6547,
      "Jul": 6548,
      "##ile": 6549,
      "##ten": 6550,
      "##ton": 6551,
      "##ood": 6552,
      "17": 6553,
      "##iss": 6554,
      "January": 6555,
      "form": 6556,
      "##ress": 6557,
      "dep": 6558,
      "##ident": 6559,
      "193": 6560,
      "up": 6561,
      "ne": 6562,
      "##duc": 6563,
      "##hn": 6564,
      "bet": 6565,
      "##gan": 6566,
      "sing": 6567,
      "off": 6568,
      "film": 6569,
      "##ors": 6570,
      "rele": 6571,
      "##rect": 6572,
      "des": 6573,
      "when": 6574,
      "##ook": 6575,
      "##one": 6576,
      "el": 6577,
      "##ould": 6578,
      "##au": 6579,
      "##oin": 6580,
      "called": 6581,
      "##ick": 6582,
      "##urr": 6583,
      "##are": 6584,
      "##ople": 6585,
      "pop": 6586,
      "##aus": 6587,
      "name": 6588,
      "gen": 6589,
      "Aug": 6590,
      "over": 6591,
      "fl": 6592,
      "August": 6593,
      "they": 6594,
      "March": 6595,
      "spec": 6596,
      "##ents": 6597,
      "she": 6598,
      "##ose": 6599,
      "time": 6600,
      "##able": 6601,
      "sec": 6602,
      "##ah": 6603,
      "Jo": 6604,
      "##pril": 6605,
      "July": 6606,
      "April": 6607,
      "Sp": 6608,
      "##eld": 6609,
      "192": 6610,
      "ev": 6611,
      "##son": 6612,
      "##ict": 6613,
      "##ional": 6614,
      "##iver": 6615,
      "##ily": 6616,
      "Dec": 6617,
      "##ool": 6618,
      "Sept": 6619,
      "June": 6620,
      "sy": 6621,
      "about": 6622,
      "writ": 6623,
      "made": 6624,
      "Sh": 6625,
      "##ics": 6626,
      "##ft": 6627,
      "September": 6628,
      "##ootball": 6629,
      "Nov": 6630,
      "##ames": 6631,
      "##ase": 6632,
      "##arg": 6633,
      "Ger": 6634,
      "fam": 6635,
      "##reat": 6636,
      "##evel": 6637,
      "##ix": 6638,
      "##ings": 6639,
      "direct": 6640,
      "you": 6641,
      "Oct": 6642,
      "##ont": 6643,
      "mus": 6644,
      "##ween": 6645,
      "more": 6646,
      "Com": 6647,
      "October": 6648,
      "years": 6649,
      "France": 6650,
      "Ind": 6651,
      "att": 6652,
      "##oup": 6653,
      "dist": 6654,
      "15": 6655,
      "pre": 6656,
      "##ne": 6657,
      "December": 6658,
      "10": 6659,
      "##ied": 6660,
      "16": 6661,
      "polit": 6662,
      "##urn": 6663,
      "Aust": 6664,
      "popul": 6665,
      "became": 6666,
      "November": 6667,
      "##ese": 6668,
      "##ebru": 6669,
      "##ebruary": 6670,
      "##ces": 6671,
      "##olog": 6672,
      "February": 6673,
      "during": 6674,
      "##iversity": 6675,
      "out": 6676,
      "##cess": 6677,
      "people": 6678,
      "between": 6679,
      "new": 6680,
      "##ician": 6681,
      "bu": 6682,
      "Brit": 6683,
      "##rough": 6684,
      "##resident": 6685,
      "German": 6686,
      "former": 6687,
      "##ier": 6688,
      "par": 6689,
      "##che": 6690,
      "##ery": 6691,
      "ear": 6692,
      "##overn": 6693,
      "##hy": 6694,
      "cons": 6695,
      "##ance": 6696,
      "me": 6697,
      "##red": 6698,
      "##ram": 6699,
      "##til": 6700,
      "prov": 6701,
      "def": 6702,
      "where": 6703,
      "##als": 6704,
      "only": 6705,
      "##aj": 6706,
      "publ": 6707,
      "##rib": 6708,
      "member": 6709,
      "##bum": 6710,
      "released": 6711,
      "inst": 6712,
      "elect": 6713,
      "County": 6714,
      "##ished": 6715,
      "state": 6716,
      "stud": 6717,
      "ret": 6718,
      "num": 6719,
      "##way": 6720,
      "football": 6721,
      "many": 6722,
      "Sw": 6723,
      "##hip": 6724,
      "ind": 6725,
      "##erm": 6726,
      "under": 6727,
      "12": 6728,
      "Is": 6729,
      "co": 6730,
      "song": 6731,
      "series": 6732,
      "than": 6733,
      "album": 6734,
      "imp": 6735,
      "sub": 6736,
      "Can": 6737,
      "##az": 6738,
      "##amed": 6739,
      "##artment": 6740,
      "such": 6741,
      "##up": 6742,
      "##ative": 6743,
      "##ash": 6744,
      "##apan": 6745,
      "second": 6746,
      "##oth": 6747,
      "cre": 6748,
      "##ality": 6749,
      "tel": 6750,
      "##yp": 6751,
      "##ina": 6752,
      "##lish": 6753,
      "##eg": 6754,
      "World": 6755,
      "Japan": 6756,
      "##ole": 6757,
      "##fess": 6758,
      "three": 6759,
      "met": 6760,
      "##enn": 6761,
      "sev": 6762,
      "##ived": 6763,
      "set": 6764,
      "##ury": 6765,
      "##att": 6766,
      "use": 6767,
      "##ss": 6768,
      "bl": 6769,
      "##inal": 6770,
      "War": 6771,
      "This": 6772,
      "some": 6773,
      "##inn": 6774,
      "Sc": 6775,
      "Car": 6776,
      "##ann": 6777,
      "##ollow": 6778,
      "played": 6779,
      "##ike": 6780,
      "##ex": 6781,
      "##ather": 6782,
      "At": 6783,
      "Pr": 6784,
      "2010": 6785,
      "##hen": 6786,
      "until": 6787,
      "##ious": 6788,
      "##rict": 6789,
      "##ered": 6790,
      "##ister": 6791,
      "four": 6792,
      "##ced": 6793,
      "we": 6794,
      "##form": 6795,
      "##ron": 6796,
      "so": 6797,
      "there": 6798,
      "count": 6799,
      "Col": 6800,
      "John": 6801,
      "team": 6802,
      "through": 6803,
      "cap": 6804,
      "They": 6805,
      "##du": 6806,
      "##evision": 6807,
      "##ale": 6808,
      "later": 6809,
      "11": 6810,
      "##chool": 6811,
      "University": 6812,
      "##ital": 6813,
      "##fore": 6814,
      "number": 6815,
      "mod": 6816,
      "British": 6817,
      "then": 6818,
      "##pl": 6819,
      "##ks": 6820,
      "Cl": 6821,
      "##ll": 6822,
      "town": 6823,
      "##ual": 6824,
      "##ted": 6825,
      "Cal": 6826,
      "##icip": 6827,
      "14": 6828,
      "##ife": 6829,
      "South": 6830,
      "##air": 6831,
      "##iam": 6832,
      "##ins": 6833,
      "##resent": 6834,
      "English": 6835,
      "##0s": 6836,
      "group": 6837,
      "fe": 6838,
      "area": 6839,
      "do": 6840,
      "##any": 6841,
      "National": 6842,
      "##ement": 6843,
      "##ley": 6844,
      "13": 6845,
      "##rans": 6846,
      "##imes": 6847,
      "profess": 6848,
      "produc": 6849,
      "commune": 6850,
      "##ever": 6851,
      "mar": 6852,
      "run": 6853,
      "King": 6854,
      "main": 6855,
      "north": 6856,
      "larg": 6857,
      "Austral": 6858,
      "##stem": 6859,
      "##iet": 6860,
      "##ower": 6861,
      "department": 6862,
      "Br": 6863,
      "will": 6864,
      "##ird": 6865,
      "them": 6866,
      "follow": 6867,
      "##evelop": 6868,
      "York": 6869,
      "television": 6870,
      "him": 6871,
      "##ters": 6872,
      "##ouse": 6873,
      "##pen": 6874,
      "Pro": 6875,
      "col": 6876,
      "##let": 6877,
      "##ction": 6878,
      "##ays": 6879,
      "including": 6880,
      "##erv": 6881,
      "end": 6882,
      "##ually": 6883,
      "##uss": 6884,
      "##ating": 6885,
      "Bl": 6886,
      "best": 6887,
      "won": 6888,
      "##ium": 6889,
      "dec": 6890,
      "record": 6891,
      "mon": 6892,
      "rem": 6893,
      "##cc": 6894,
      "##ause": 6895,
      "##atur": 6896,
      "##ason": 6897,
      "age": 6898,
      "world": 6899,
      "Par": 6900,
      "##ert": 6901,
      "well": 6902,
      "2017": 6903,
      "orig": 6904,
      "##SB": 6905,
      "movie": 6906,
      "Canad": 6907,
      "start": 6908,
      "North": 6909,
      "band": 6910,
      "##ean": 6911,
      "##ities": 6912,
      "##ific": 6913,
      "located": 6914,
      "long": 6915,
      "small": 6916,
      "named": 6917,
      "again": 6918,
      "ass": 6919,
      "bro": 6920,
      "Con": 6921,
      "##ica": 6922,
      "##ague": 6923,
      "region": 6924,
      "##ism": 6925,
      "##ax": 6926,
      "##other": 6927,
      "family": 6928,
      "show": 6929,
      "art": 6930,
      "develop": 6931,
      "Eu": 6932,
      "add": 6933,
      "politician": 6934,
      "##ired": 6935,
      "##ars": 6936,
      "##ject": 6937,
      "govern": 6938,
      "##estern": 6939,
      "2014": 6940,
      "player": 6941,
      "lead": 6942,
      "##ai": 6943,
      "##my": 6944,
      "county": 6945,
      "##oss": 6946,
      "##ient": 6947,
      "##ried": 6948,
      "RSB": 6949,
      "191": 6950,
      "served": 6951,
      "##erson": 6952,
      "since": 6953,
      "based": 6954,
      "##ajor": 6955,
      "##ank": 6956,
      "##unicip": 6957,
      "##hem": 6958,
      "supp": 6959,
      "##ise": 6960,
      "may": 6961,
      "##ph": 6962,
      "near": 6963,
      "2018": 6964,
      "President": 6965,
      "##oman": 6966,
      "Gr": 6967,
      "Rep": 6968,
      "min": 6969,
      "before": 6970,
      "##und": 6971,
      "##ution": 6972,
      "##ular": 6973,
      "typ": 6974,
      "am": 6975,
      "if": 6976,
      "being": 6977,
      "system": 6978,
      "qu": 6979,
      "##rist": 6980,
      "##ains": 6981,
      "inter": 6982,
      "Ge": 6983,
      "sim": 6984,
      "hist": 6985,
      "City": 6986,
      "##ield": 6987,
      "child": 6988,
      "25": 6989,
      "##ox": 6990,
      "trans": 6991,
      "would": 6992,
      "##ists": 6993,
      "car": 6994,
      "##ull": 6995,
      "##rap": 6996,
      "med": 6997,
      "dif": 6998,
      "your": 6999,
      "char": 7000,
      "Min": 7001,
      "##omet": 7002,
      "##rench": 7003,
      "Be": 7004,
      "England": 7005,
      "both": 7006,
      "Europ": 7007,
      "##sh": 7008,
      "##ently": 7009,
      "ph": 7010,
      "offic": 7011,
      "French": 7012,
      "Ph": 7013,
      "south": 7014,
      "Ad": 7015,
      "appear": 7016,
      "##uk": 7017,
      "Or": 7018,
      "##illion": 7019,
      "old": 7020,
      "inv": 7021,
      "30": 7022,
      "game": 7023,
      "000": 7024,
      "ob": 7025,
      "go": 7026,
      "##eng": 7027,
      "ext": 7028,
      "##ized": 7029,
      "##its": 7030,
      "##ines": 7031,
      "##sp": 7032,
      "##cy": 7033,
      "After": 7034,
      "II": 7035,
      "For": 7036,
      "mat": 7037,
      "largest": 7038,
      "term": 7039,
      "2015": 7040,
      "professional": 7041,
      "##ret": 7042,
      "sur": 7043,
      "##ator": 7044,
      "music": 7045,
      "like": 7046,
      "El": 7047,
      "air": 7048,
      "same": 7049,
      "own": 7050,
      "any": 7051,
      "km": 7052,
      "All": 7053,
      "book": 7054,
      "##ott": 7055,
      "21": 7056,
      "##ives": 7057,
      "oper": 7058,
      "##aid": 7059,
      "br": 7060,
      "##angu": 7061,
      "common": 7062,
      "curr": 7063,
      "Will": 7064,
      "##ty": 7065,
      "##fl": 7066,
      "Wh": 7067,
      "Ed": 7068,
      "est": 7069,
      "2011": 7070,
      "His": 7071,
      "var": 7072,
      "##ternational": 7073,
      "##ection": 7074,
      "Japanese": 7075,
      "##ially": 7076,
      "Fl": 7077,
      "##rest": 7078,
      "2016": 7079,
      "century": 7080,
      "##uth": 7081,
      "no": 7082,
      "actor": 7083,
      "24": 7084,
      "##atic": 7085,
      "##ae": 7086,
      "open": 7087,
      "while": 7088,
      "species": 7089,
      "##row": 7090,
      "high": 7091,
      "##oad": 7092,
      "Lond": 7093,
      "##els": 7094,
      "acc": 7095,
      "land": 7096,
      "##ants": 7097,
      "##ets": 7098,
      "often": 7099,
      "sign": 7100,
      "London": 7101,
      "design": 7102,
      "Comm": 7103,
      "##astern": 7104,
      "season": 7105,
      "Christ": 7106,
      "Af": 7107,
      "singer": 7108,
      "suc": 7109,
      "##unicipality": 7110,
      "##yn": 7111,
      "population": 7112,
      "early": 7113,
      "Pl": 7114,
      "Man": 7115,
      "Bar": 7116,
      "Se": 7117,
      "major": 7118,
      "##ross": 7119,
      "build": 7120,
      "22": 7121,
      "bel": 7122,
      "home": 7123,
      "Swed": 7124,
      "##ange": 7125,
      "now": 7126,
      "##orts": 7127,
      "death": 7128,
      "##iew": 7129,
      "##ony": 7130,
      "several": 7131,
      "23": 7132,
      "##ling": 7133,
      "dr": 7134,
      "2013": 7135,
      "Cent": 7136,
      "##reen": 7137,
      "langu": 7138,
      "##ature": 7139,
      "##ology": 7140,
      "##aking": 7141,
      "Ital": 7142,
      "##ful": 7143,
      "organ": 7144,
      "River": 7145,
      "Award": 7146,
      "differ": 7147,
      "##ble": 7148,
      "began": 7149,
      "head": 7150,
      "West": 7151,
      "back": 7152,
      "Gu": 7153,
      "League": 7154,
      "Bro": 7155,
      "##cer": 7156,
      "Part": 7157,
      "##iforn": 7158,
      "##ung": 7159,
      "2008": 7160,
      "Her": 7161,
      "government": 7162,
      "Californ": 7163,
      "Geor": 7164,
      "##urch": 7165,
      "contr": 7166,
      "ann": 7167,
      "2007": 7168,
      "vers": 7169,
      "Har": 7170,
      "gu": 7171,
      "Tr": 7172,
      "California": 7173,
      "written": 7174,
      "##ute": 7175,
      "##ove": 7176,
      "large": 7177,
      "million": 7178,
      "str": 7179,
      "##elf": 7180,
      "##hern": 7181,
      "using": 7182,
      "##uch": 7183,
      "##lement": 7184,
      "##lands": 7185,
      "##ages": 7186,
      "district": 7187,
      "Am": 7188,
      "charac": 7189,
      "26": 7190,
      "Russ": 7191,
      "single": 7192,
      "created": 7193,
      "##port": 7194,
      "##aur": 7195,
      "class": 7196,
      "rece": 7197,
      "around": 7198,
      "inc": 7199,
      "2012": 7200,
      "Ab": 7201,
      "star": 7202,
      "##ained": 7203,
      "div": 7204,
      "##augh": 7205,
      "28": 7206,
      "##inc": 7207,
      "De": 7208,
      "school": 7209,
      "person": 7210,
      "27": 7211,
      "disc": 7212,
      "##ink": 7213,
      "because": 7214,
      "2019": 7215,
      "##orthern": 7216,
      "Mus": 7217,
      "mil": 7218,
      "##oci": 7219,
      "##aint": 7220,
      "##yl": 7221,
      "Ang": 7222,
      "2009": 7223,
      "water": 7224,
      "following": 7225,
      "##stit": 7226,
      "##min": 7227,
      "##ible": 7228,
      "##ensus": 7229,
      "##ney": 7230,
      "sl": 7231,
      "examp": 7232,
      "against": 7233,
      "##omin": 7234,
      "national": 7235,
      "Pol": 7236,
      "Wal": 7237,
      "##ris": 7238,
      "##osed": 7239,
      "pass": 7240,
      "##iving": 7241,
      "Gen": 7242,
      "public": 7243,
      "##ures": 7244,
      "gener": 7245,
      "tit": 7246,
      "##ilt": 7247,
      "2006": 7248,
      "bas": 7249,
      "Char": 7250,
      "##ham": 7251,
      "William": 7252,
      "##by": 7253,
      "seat": 7254,
      "Re": 7255,
      "each": 7256,
      "##itt": 7257,
      "##rew": 7258,
      "Republ": 7259,
      "##ows": 7260,
      "##ects": 7261,
      "along": 7262,
      "##xt": 7263,
      "role": 7264,
      "##led": 7265,
      "##gy": 7266,
      "desc": 7267,
      "Su": 7268,
      "third": 7269,
      "son": 7270,
      "##ata": 7271,
      "##oung": 7272,
      "##ino": 7273,
      "law": 7274,
      ">.": 7275,
      "actress": 7276,
      "##co": 7277,
      "sk": 7278,
      "##dom": 7279,
      "im": 7280,
      "29": 7281,
      "six": 7282,
      "anim": 7283,
      "care": 7284,
      "##ues": 7285,
      "ever": 7286,
      "id": 7287,
      "rev": 7288,
      "last": 7289,
      "##eter": 7290,
      "##ampions": 7291,
      "coll": 7292,
      "very": 7293,
      "Air": 7294,
      "##hes": 7295,
      "##akes": 7296,
      "occ": 7297,
      "prog": 7298,
      "capital": 7299,
      "##anc": 7300,
      "rock": 7301,
      "##ided": 7302,
      "married": 7303,
      "There": 7304,
      "val": 7305,
      "##ruct": 7306,
      "##iod": 7307,
      "##bur": 7308,
      "success": 7309,
      "country": 7310,
      "190": 7311,
      "conf": 7312,
      "produ": 7313,
      "these": 7314,
      "##owever": 7315,
      "Party": 7316,
      "##iev": 7317,
      "##ek": 7318,
      "##ler": 7319,
      "return": 7320,
      "##ected": 7321,
      "fin": 7322,
      "requ": 7323,
      "day": 7324,
      "##ster": 7325,
      "started": 7326,
      "hel": 7327,
      "published": 7328,
      "##con": 7329,
      "Australia": 7330,
      "##ula": 7331,
      "produced": 7332,
      "place": 7333,
      "##af": 7334,
      "##ene": 7335,
      "##ner": 7336,
      "auth": 7337,
      "2005": 7338,
      "##uck": 7339,
      "different": 7340,
      "##oard": 7341,
      "children": 7342,
      "##lex": 7343,
      "war": 7344,
      "##ised": 7345,
      "##omen": 7346,
      "deb": 7347,
      "make": 7348,
      "And": 7349,
      "##oint": 7350,
      "##orp": 7351,
      "import": 7352,
      "Mc": 7353,
      "resp": 7354,
      "Indian": 7355,
      "##vent": 7356,
      "hum": 7357,
      "##outher": 7358,
      "##iven": 7359,
      "##ody": 7360,
      "list": 7361,
      "##outhern": 7362,
      "Bel": 7363,
      "Oly": 7364,
      "short": 7365,
      "support": 7366,
      "five": 7367,
      "origin": 7368,
      "##aster": 7369,
      "##oon": 7370,
      "Olymp": 7371,
      "##ograp": 7372,
      "##aul": 7373,
      "##ze": 7374,
      "##ides": 7375,
      "popular": 7376,
      "held": 7377,
      "##lege": 7378,
      "##sc": 7379,
      "install": 7380,
      "##istan": 7381,
      "##ille": 7382,
      "bus": 7383,
      "##ether": 7384,
      "100": 7385,
      "award": 7386,
      "##olv": 7387,
      "##ience": 7388,
      "##ech": 7389,
      "refer": 7390,
      "Minister": 7391,
      "##ries": 7392,
      "Co": 7393,
      "America": 7394,
      "somet": 7395,
      "##ke": 7396,
      "down": 7397,
      "event": 7398,
      "##ats": 7399,
      "example": 7400,
      "built": 7401,
      "2000": 7402,
      "##side": 7403,
      "##rov": 7404,
      "##ald": 7405,
      "##rem": 7406,
      "la": 7407,
      "##ipp": 7408,
      "##ington": 7409,
      "cr": 7410,
      "##cept": 7411,
      "##eth": 7412,
      "##ria": 7413,
      "usually": 7414,
      "Germany": 7415,
      "##ago": 7416,
      "eng": 7417,
      "exp": 7418,
      "period": 7419,
      "central": 7420,
      "##ivil": 7421,
      "##que": 7422,
      "##ically": 7423,
      "contin": 7424,
      "province": 7425,
      "##hys": 7426,
      "father": 7427,
      "attack": 7428,
      "west": 7429,
      "founded": 7430,
      "Med": 7431,
      "Park": 7432,
      "po": 7433,
      "##ior": 7434,
      "##idge": 7435,
      "vill": 7436,
      "2004": 7437,
      "Sec": 7438,
      "Roman": 7439,
      "word": 7440,
      "line": 7441,
      "ed": 7442,
      "Ass": 7443,
      "##ampionship": 7444,
      "##for": 7445,
      "leg": 7446,
      "##int": 7447,
      "include": 7448,
      "##ended": 7449,
      "##ified": 7450,
      "commun": 7451,
      "State": 7452,
      "US": 7453,
      "author": 7454,
      "language": 7455,
      "Mich": 7456,
      "municipality": 7457,
      "##ideo": 7458,
      "##raft": 7459,
      "##iter": 7460,
      "##tain": 7461,
      "##aving": 7462,
      "fun": 7463,
      "##ockey": 7464,
      "compet": 7465,
      "189": 7466,
      "##attle": 7467,
      "##aced": 7468,
      "##ummer": 7469,
      "Lou": 7470,
      "##ford": 7471,
      "president": 7472,
      "top": 7473,
      "##aut": 7474,
      "##over": 7475,
      "version": 7476,
      "club": 7477,
      "##lic": 7478,
      "##ument": 7479,
      "left": 7480,
      "##osp": 7481,
      "##work": 7482,
      "character": 7483,
      "red": 7484,
      "program": 7485,
      "Canadian": 7486,
      "members": 7487,
      "ent": 7488,
      "life": 7489,
      "##ane": 7490,
      "##ning": 7491,
      "comed": 7492,
      "James": 7493,
      "received": 7494,
      "##ights": 7495,
      "estab": 7496,
      "House": 7497,
      "Phil": 7498,
      "east": 7499,
      "though": 7500,
      "formed": 7501,
      "##itz": 7502,
      "##ocr": 7503,
      "order": 7504,
      "##ett": 7505,
      "##adem": 7506,
      "31": 7507,
      "mid": 7508,
      "av": 7509,
      "India": 7510,
      "##umb": 7511,
      "##though": 7512,
      "host": 7513,
      "help": 7514,
      "Sweden": 7515,
      "prom": 7516,
      "career": 7517,
      "##hel": 7518,
      "##ara": 7519,
      "##ival": 7520,
      "2001": 7521,
      "East": 7522,
      "Pe": 7523,
      "San": 7524,
      "2003": 7525,
      "Dav": 7526,
      "within": 7527,
      "Sy": 7528,
      "##iness": 7529,
      "prot": 7530,
      "chang": 7531,
      "given": 7532,
      "tem": 7533,
      "##alt": 7534,
      "history": 7535,
      "took": 7536,
      "nov": 7537,
      "directed": 7538,
      "did": 7539,
      "##ourt": 7540,
      "School": 7541,
      "##ctor": 7542,
      "tw": 7543,
      "##ourn": 7544,
      "video": 7545,
      "##ize": 7546,
      "##gr": 7547,
      "kill": 7548,
      "##ones": 7549,
      "Kingdom": 7550,
      "important": 7551,
      "Australian": 7552,
      "##itary": 7553,
      "moved": 7554,
      "When": 7555,
      "aut": 7556,
      "##amb": 7557,
      "Nor": 7558,
      "##ama": 7559,
      "##earch": 7560,
      "said": 7561,
      "trad": 7562,
      "rest": 7563,
      "##day": 7564,
      "sit": 7565,
      "Gl": 7566,
      "Mon": 7567,
      "present": 7568,
      "perform": 7569,
      "##ural": 7570,
      "##lin": 7571,
      "##ief": 7572,
      "port": 7573,
      "##ately": 7574,
      "##bert": 7575,
      "##writ": 7576,
      "##ices": 7577,
      "##eal": 7578,
      "##gg": 7579,
      "##ison": 7580,
      "soc": 7581,
      "##olution": 7582,
      "Rober": 7583,
      "##arm": 7584,
      "One": 7585,
      "test": 7586,
      "Emp": 7587,
      "##epend": 7588,
      "##ana": 7589,
      "##ien": 7590,
      "186": 7591,
      "2002": 7592,
      "##oyal": 7593,
      "##inning": 7594,
      "##ounced": 7595,
      "##ches": 7596,
      "spe": 7597,
      "bre": 7598,
      "consid": 7599,
      "ep": 7600,
      "##ask": 7601,
      "Pri": 7602,
      "Chic": 7603,
      "director": 7604,
      "type": 7605,
      "need": 7606,
      "##omb": 7607,
      "Per": 7608,
      "pos": 7609,
      "young": 7610,
      "Ac": 7611,
      "fr": 7612,
      "##ush": 7613,
      "power": 7614,
      "stand": 7615,
      "sett": 7616,
      "mag": 7617,
      "##ively": 7618,
      "Que": 7619,
      "##ple": 7620,
      "##ius": 7621,
      "##anish": 7622,
      "company": 7623,
      "##ael": 7624,
      "hig": 7625,
      "caus": 7626,
      "Dem": 7627,
      "Canada": 7628,
      "writer": 7629,
      "Govern": 7630,
      "che": 7631,
      "join": 7632,
      "eff": 7633,
      "hand": 7634,
      "Ber": 7635,
      "##reek": 7636,
      "post": 7637,
      "During": 7638,
      "just": 7639,
      "manag": 7640,
      "camp": 7641,
      "Italian": 7642,
      "##ena": 7643,
      "International": 7644,
      "mark": 7645,
      "##ission": 7646,
      "arr": 7647,
      "Ear": 7648,
      "##istr": 7649,
      "##ility": 7650,
      "Rich": 7651,
      "188": 7652,
      "##ording": 7653,
      "see": 7654,
      "Sen": 7655,
      "##na": 7656,
      "command": 7657,
      "La": 7658,
      "##gen": 7659,
      "times": 7660,
      "##ady": 7661,
      "##med": 7662,
      "det": 7663,
      "Bra": 7664,
      "##ger": 7665,
      "rad": 7666,
      "##oo": 7667,
      "##ribut": 7668,
      "Europe": 7669,
      "Ser": 7670,
      "Chicago": 7671,
      "sold": 7672,
      "##ization": 7673,
      "George": 7674,
      "##ript": 7675,
      "sometimes": 7676,
      "political": 7677,
      "Pak": 7678,
      "aged": 7679,
      "Its": 7680,
      "represent": 7681,
      "village": 7682,
      "##echn": 7683,
      "debut": 7684,
      "northern": 7685,
      "lived": 7686,
      "daugh": 7687,
      "developed": 7688,
      "##app": 7689,
      "##conom": 7690,
      "census": 7691,
      "vis": 7692,
      "Hol": 7693,
      "complet": 7694,
      "##ico": 7695,
      "late": 7696,
      "island": 7697,
      "repl": 7698,
      "could": 7699,
      "##ms": 7700,
      "ap": 7701,
      "Me": 7702,
      "body": 7703,
      "##ounc": 7704,
      "Angel": 7705,
      "prim": 7706,
      "great": 7707,
      ">,": 7708,
      "##ring": 7709,
      "European": 7710,
      "em": 7711,
      "##rote": 7712,
      "mult": 7713,
      "##gin": 7714,
      "##ee": 7715,
      "describ": 7716,
      "tot": 7717,
      "western": 7718,
      "##ope": 7719,
      "level": 7720,
      "##ibr": 7721,
      "file": 7722,
      "emp": 7723,
      "title": 7724,
      "Rec": 7725,
      "histor": 7726,
      "worked": 7727,
      "Ex": 7728,
      "local": 7729,
      "Dist": 7730,
      "##aining": 7731,
      "original": 7732,
      "famous": 7733,
      "General": 7734,
      "Great": 7735,
      "const": 7736,
      "river": 7737,
      "Mor": 7738,
      "##writer": 7739,
      "Republic": 7740,
      "arch": 7741,
      "Val": 7742,
      "Sch": 7743,
      "##ense": 7744,
      "Saint": 7745,
      "ter": 7746,
      "del": 7747,
      "187": 7748,
      "Robert": 7749,
      "every": 7750,
      "Flor": 7751,
      "modern": 7752,
      "##oles": 7753,
      "##lished": 7754,
      "##alth": 7755,
      "##avy": 7756,
      "##burg": 7757,
      "##ales": 7758,
      "##ault": 7759,
      "studio": 7760,
      "##ued": 7761,
      "wrote": 7762,
      "##ness": 7763,
      "##van": 7764,
      "live": 7765,
      "##ape": 7766,
      "Mex": 7767,
      "Union": 7768,
      "sol": 7769,
      "High": 7770,
      "##ined": 7771,
      "much": 7772,
      "expl": 7773,
      "what": 7774,
      "##ida": 7775,
      "sw": 7776,
      "current": 7777,
      "equ": 7778,
      "1999": 7779,
      "Paul": 7780,
      "##ministr": 7781,
      "##ared": 7782,
      "##atural": 7783,
      "opt": 7784,
      "result": 7785,
      "Kore": 7786,
      "gl": 7787,
      "Louis": 7788,
      "conc": 7789,
      "month": 7790,
      "##ule": 7791,
      "##itions": 7792,
      "Jack": 7793,
      "activ": 7794,
      "process": 7795,
      "##ecut": 7796,
      "##riend": 7797,
      "##ged": 7798,
      "##ilar": 7799,
      "become": 7800,
      "##iety": 7801,
      "business": 7802,
      "##adu": 7803,
      "cult": 7804,
      "Sm": 7805,
      "##iber": 7806,
      "non": 7807,
      "still": 7808,
      "established": 7809,
      "total": 7810,
      "led": 7811,
      "Hen": 7812,
      "general": 7813,
      "another": 7814,
      "##emb": 7815,
      "wife": 7816,
      "Cup": 7817,
      "##overed": 7818,
      "##eph": 7819,
      "eastern": 7820,
      "Russian": 7821,
      "##ored": 7822,
      "##alf": 7823,
      "southern": 7824,
      "185": 7825,
      "currently": 7826,
      "##irc": 7827,
      "chem": 7828,
      "Miss": 7829,
      "station": 7830,
      "Democr": 7831,
      "However": 7832,
      "##ades": 7833,
      "##ani": 7834,
      "phys": 7835,
      "due": 7836,
      "Gre": 7837,
      "appeared": 7838,
      "crit": 7839,
      "Comp": 7840,
      "project": 7841,
      "##uel": 7842,
      "##ured": 7843,
      "##uter": 7844,
      "Army": 7845,
      "games": 7846,
      "##BC": 7847,
      "Prov": 7848,
      "Mo": 7849,
      "##aly": 7850,
      "went": 7851,
      "making": 7852,
      "##ories": 7853,
      "Pal": 7854,
      "men": 7855,
      "Black": 7856,
      "election": 7857,
      "Pakistan": 7858,
      "##aim": 7859,
      "featur": 7860,
      "Port": 7861,
      "Bill": 7862,
      "##aces": 7863,
      "partic": 7864,
      "##ux": 7865,
      "civil": 7866,
      "##ropical": 7867,
      "prev": 7868,
      "way": 7869,
      "##hod": 7870,
      "countries": 7871,
      "my": 7872,
      "1992": 7873,
      "Spanish": 7874,
      "few": 7875,
      "Island": 7876,
      "1998": 7877,
      "##yle": 7878,
      "Vir": 7879,
      "Mary": 7880,
      "sour": 7881,
      "compos": 7882,
      "novel": 7883,
      "sent": 7884,
      "Church": 7885,
      "military": 7886,
      "College": 7887,
      "field": 7888,
      "##ians": 7889,
      "announced": 7890,
      "bord": 7891,
      "cell": 7892,
      "key": 7893,
      "Los": 7894,
      "##tt": 7895,
      "##line": 7896,
      "mother": 7897,
      "##ges": 7898,
      "Championship": 7899,
      "Thom": 7900,
      "infl": 7901,
      "women": 7902,
      "##ociation": 7903,
      "Mont": 7904,
      "mean": 7905,
      "Reg": 7906,
      "District": 7907,
      "engine": 7908,
      "even": 7909,
      "##berg": 7910,
      "##ouncil": 7911,
      "Charles": 7912,
      "##etwork": 7913,
      "included": 7914,
      "##ansas": 7915,
      "Wash": 7916,
      "vo": 7917,
      "daughter": 7918,
      "1995": 7919,
      "playing": 7920,
      "##ases": 7921,
      "##ids": 7922,
      "##antic": 7923,
      "came": 7924,
      "1996": 7925,
      "elected": 7926,
      "official": 7927,
      "cancer": 7928,
      "##isc": 7929,
      "Tex": 7930,
      "ref": 7931,
      "Tur": 7932,
      "similar": 7933,
      "1994": 7934,
      "days": 7935,
      "stage": 7936,
      "##ream": 7937,
      "party": 7938,
      "Grand": 7939,
      "Franc": 7940,
      "special": 7941,
      "Some": 7942,
      "side": 7943,
      "should": 7944,
      "dram": 7945,
      "Red": 7946,
      "fem": 7947,
      "coast": 7948,
      "Greek": 7949,
      "Dr": 7950,
      "By": 7951,
      "##rick": 7952,
      "works": 7953,
      "##ords": 7954,
      "web": 7955,
      "Best": 7956,
      "Ne": 7957,
      "producer": 7958,
      "1997": 7959,
      "mount": 7960,
      "doc": 7961,
      "ge": 7962,
      "stat": 7963,
      "Hall": 7964,
      "##orpor": 7965,
      "service": 7966,
      "view": 7967,
      "brother": 7968,
      "##dle": 7969,
      "We": 7970,
      "enter": 7971,
      "vol": 7972,
      "1993": 7973,
      "Braz": 7974,
      "dem": 7975,
      "house": 7976,
      "China": 7977,
      "independ": 7978,
      "##ky": 7979,
      "These": 7980,
      "data": 7981,
      "##ademy": 7982,
      "mer": 7983,
      "##ither": 7984,
      "##gar": 7985,
      "Washington": 7986,
      "opp": 7987,
      "retired": 7988,
      "Richard": 7989,
      "international": 7990,
      "Em": 7991,
      "My": 7992,
      "rail": 7993,
      "human": 7994,
      "originally": 7995,
      "##alk": 7996,
      "ant": 7997,
      "Sov": 7998,
      "cop": 7999,
      "##men": 8000,
      "Michael": 8001,
      "##ached": 8002,
      "states": 8003,
      "Brazil": 8004,
      "get": 8005,
      "David": 8006,
      "Texas": 8007,
      "poss": 8008,
      "Te": 8009,
      "next": 8010,
      "among": 8011,
      "Prime": 8012,
      "##itional": 8013,
      "econom": 8014,
      "sep": 8015,
      "Alex": 8016,
      "Mart": 8017,
      "##west": 8018,
      "artist": 8019,
      "Mount": 8020,
      "##ma": 8021,
      "inf": 8022,
      "No": 8023,
      "##ranch": 8024,
      "win": 8025,
      "building": 8026,
      "nomin": 8027,
      "##olic": 8028,
      "##hest": 8029,
      "##atin": 8030,
      "Scott": 8031,
      "having": 8032,
      "##ump": 8033,
      "1990": 8034,
      "Mad": 8035,
      "##alist": 8036,
      "50": 8037,
      "rul": 8038,
      "fre": 8039,
      "Sl": 8040,
      "right": 8041,
      "##urrican": 8042,
      "##gian": 8043,
      "##rica": 8044,
      "##unt": 8045,
      "Atl": 8046,
      "config": 8047,
      "##aine": 8048,
      "considered": 8049,
      "want": 8050,
      "##ander": 8051,
      "dev": 8052,
      "##urs": 8053,
      "Angeles": 8054,
      "allow": 8055,
      "Go": 8056,
      "ice": 8057,
      "those": 8058,
      "light": 8059,
      "##ours": 8060,
      "##ogn": 8061,
      "conn": 8062,
      "match": 8063,
      "cor": 8064,
      "parts": 8065,
      "1991": 8066,
      "Dep": 8067,
      "tog": 8068,
      "##itar": 8069,
      "together": 8070,
      "##ote": 8071,
      "story": 8072,
      "##unk": 8073,
      "less": 8074,
      "Academy": 8075,
      "##irl": 8076,
      "development": 8077,
      "##HL": 8078,
      "black": 8079,
      "previous": 8080,
      "Soviet": 8081,
      "##liam": 8082,
      "anc": 8083,
      "Christian": 8084,
      "separ": 8085,
      "##ering": 8086,
      "beh": 8087,
      "1984": 8088,
      "method": 8089,
      "turn": 8090,
      "Don": 8091,
      "##ests": 8092,
      "appro": 8093,
      "##aker": 8094,
      "##bor": 8095,
      "Soc": 8096,
      "commonly": 8097,
      "1989": 8098,
      "##iction": 8099,
      "final": 8100,
      "administr": 8101,
      "Act": 8102,
      "Royal": 8103,
      "without": 8104,
      "##most": 8105,
      "Pat": 8106,
      "ra": 8107,
      "Gold": 8108,
      "Jos": 8109,
      "ins": 8110,
      "Mid": 8111,
      "##ef": 8112,
      "##aken": 8113,
      "1986": 8114,
      "bi": 8115,
      "Africa": 8116,
      "##ville": 8117,
      "WW": 8118,
      "wrest": 8119,
      "comedy": 8120,
      "##liament": 8121,
      "Qu": 8122,
      "##ched": 8123,
      "Bay": 8124,
      "1980": 8125,
      "point": 8126,
      "Ben": 8127,
      "##board": 8128,
      "##mi": 8129,
      "Mal": 8130,
      "full": 8131,
      "cy": 8132,
      "exper": 8133,
      "center": 8134,
      "##ittle": 8135,
      "##iol": 8136,
      "##eum": 8137,
      "1987": 8138,
      "report": 8139,
      "From": 8140,
      "##field": 8141,
      "Acc": 8142,
      "##ck": 8143,
      "Wil": 8144,
      "iss": 8145,
      "##urb": 8146,
      "dest": 8147,
      "natural": 8148,
      "includes": 8149,
      "wid": 8150,
      "recorded": 8151,
      "Western": 8152,
      "184": 8153,
      "does": 8154,
      "Virgin": 8155,
      "Ill": 8156,
      "##reet": 8157,
      "Paris": 8158,
      "##amm": 8159,
      "##wood": 8160,
      "##enth": 8161,
      "living": 8162,
      "educ": 8163,
      "Mil": 8164,
      "Chin": 8165,
      "Lo": 8166,
      "various": 8167,
      "pat": 8168,
      "##com": 8169,
      "Sa": 8170,
      "##ops": 8171,
      "how": 8172,
      "##vir": 8173,
      "##abor": 8174,
      "fourth": 8175,
      "pres": 8176,
      "must": 8177,
      "Bo": 8178,
      "Ir": 8179,
      "##ror": 8180,
      "##ven": 8181,
      "footballer": 8182,
      "office": 8183,
      "element": 8184,
      "##gn": 8185,
      "##den": 8186,
      "leader": 8187,
      "track": 8188,
      "means": 8189,
      "Lake": 8190,
      "free": 8191,
      "Rh": 8192,
      "plays": 8193,
      "##ederal": 8194,
      "##ota": 8195,
      "fail": 8196,
      "##urricane": 8197,
      "half": 8198,
      "1988": 8199,
      "##onment": 8200,
      "##ots": 8201,
      "##ead": 8202,
      "wind": 8203,
      "model": 8204,
      "##hi": 8205,
      "init": 8206,
      "comb": 8207,
      "##ender": 8208,
      "1981": 8209,
      "##face": 8210,
      "heart": 8211,
      "influ": 8212,
      "##ecture": 8213,
      "white": 8214,
      "##abit": 8215,
      "Central": 8216,
      "##ental": 8217,
      "##ibrary": 8218,
      "##oph": 8219,
      "beg": 8220,
      "Vict": 8221,
      "super": 8222,
      "Cath": 8223,
      "##ij": 8224,
      "read": 8225,
      "##formation": 8226,
      "aff": 8227,
      "##retary": 8228,
      "syn": 8229,
      "Hill": 8230,
      "1982": 8231,
      "1979": 8232,
      "hon": 8233,
      "proper": 8234,
      "friend": 8235,
      "create": 8236,
      "control": 8237,
      "##rip": 8238,
      "songwriter": 8239,
      "Kh": 8240,
      "##aper": 8241,
      "highest": 8242,
      "mi": 8243,
      "##heast": 8244,
      "struct": 8245,
      "##forman": 8246,
      "Sea": 8247,
      "ten": 8248,
      "##ka": 8249,
      "##acing": 8250,
      "##ify": 8251,
      "Florida": 8252,
      "Olympic": 8253,
      "##shire": 8254,
      "##itan": 8255,
      "although": 8256,
      "Do": 8257,
      "avail": 8258,
      "##ological": 8259,
      "##irth": 8260,
      "areas": 8261,
      "Most": 8262,
      "surv": 8263,
      "exist": 8264,
      "eight": 8265,
      "Edward": 8266,
      "1985": 8267,
      "##aff": 8268,
      "Thomas": 8269,
      "##yd": 8270,
      "##ably": 8271,
      "Games": 8272,
      "either": 8273,
      "seven": 8274,
      "Sal": 8275,
      "##ency": 8276,
      "sex": 8277,
      "1983": 8278,
      "particular": 8279,
      "Cap": 8280,
      "##itzer": 8281,
      "musician": 8282,
      "Summer": 8283,
      "Bu": 8284,
      "opened": 8285,
      "cat": 8286,
      "##asons": 8287,
      "Henry": 8288,
      "Sant": 8289,
      "##hic": 8290,
      "drama": 8291,
      "Democratic": 8292,
      "##elv": 8293,
      "Az": 8294,
      "Dis": 8295,
      "Kar": 8296,
      "##aves": 8297,
      "killed": 8298,
      "##ebr": 8299,
      "Rock": 8300,
      "joined": 8301,
      "sel": 8302,
      "broad": 8303,
      "##ospital": 8304,
      "techn": 8305,
      "##osaur": 8306,
      "cal": 8307,
      "##here": 8308,
      "grow": 8309,
      "Chinese": 8310,
      "incre": 8311,
      "Sam": 8312,
      "defe": 8313,
      "Ter": 8314,
      "##cean": 8315,
      "1972": 8316,
      "low": 8317,
      "##ination": 8318,
      "Governor": 8319,
      "1976": 8320,
      "Cong": 8321,
      "Bas": 8322,
      "films": 8323,
      "take": 8324,
      "Carol": 8325,
      "Bur": 8326,
      "##utch": 8327,
      "indust": 8328,
      "##ki": 8329,
      "fif": 8330,
      "epis": 8331,
      "available": 8332,
      "##rican": 8333,
      "Frank": 8334,
      "successful": 8335,
      "##go": 8336,
      "circ": 8337,
      "Kansas": 8338,
      "food": 8339,
      "Art": 8340,
      "BC": 8341,
      "king": 8342,
      "##olk": 8343,
      "default": 8344,
      "##yr": 8345,
      "##asc": 8346,
      "meaning": 8347,
      "Victor": 8348,
      "strong": 8349,
      "##eder": 8350,
      "working": 8351,
      "##spec": 8352,
      "sq": 8353,
      "##vironment": 8354,
      "40": 8355,
      "##loy": 8356,
      "recogn": 8357,
      "prop": 8358,
      "Div": 8359,
      "Sim": 8360,
      "Spain": 8361,
      "##ude": 8362,
      "science": 8363,
      "mass": 8364,
      "Jew": 8365,
      "ill": 8366,
      "Che": 8367,
      "Super": 8368,
      "university": 8369,
      "1974": 8370,
      "site": 8371,
      "study": 8372,
      "dise": 8373,
      "##ming": 8374,
      "books": 8375,
      "intro": 8376,
      "##olved": 8377,
      "radio": 8378,
      "big": 8379,
      "##ract": 8380,
      "##lear": 8381,
      "Law": 8382,
      "##roy": 8383,
      "adv": 8384,
      "across": 8385,
      "mot": 8386,
      "##acy": 8387,
      "##itor": 8388,
      "African": 8389,
      "Mer": 8390,
      "mostly": 8391,
      "roles": 8392,
      "With": 8393,
      "183": 8394,
      "good": 8395,
      "##ointed": 8396,
      "find": 8397,
      "Earth": 8398,
      "1973": 8399,
      "object": 8400,
      "According": 8401,
      "##oul": 8402,
      "Italy": 8403,
      "##lo": 8404,
      "##inois": 8405,
      "##ona": 8406,
      "social": 8407,
      "##elling": 8408,
      "Met": 8409,
      "release": 8410,
      "Illinois": 8411,
      "signed": 8412,
      "##imately": 8413,
      "##enc": 8414,
      "##me": 8415,
      "referred": 8416,
      "Mass": 8417,
      "##oming": 8418,
      "stars": 8419,
      "1971": 8420,
      "##ards": 8421,
      "Francis": 8422,
      "sea": 8423,
      "1975": 8424,
      "trav": 8425,
      "dam": 8426,
      "hockey": 8427,
      "##put": 8428,
      "##ending": 8429,
      "der": 8430,
      "Del": 8431,
      "##rid": 8432,
      "##uke": 8433,
      "Jr": 8434,
      "##ado": 8435,
      "##gypt": 8436,
      "plant": 8437,
      "Egypt": 8438,
      "Pre": 8439,
      "lim": 8440,
      "1969": 8441,
      "Mexico": 8442,
      "##atory": 8443,
      "Rev": 8444,
      "ren": 8445,
      "performed": 8446,
      "Tom": 8447,
      "cond": 8448,
      "1977": 8449,
      "above": 8450,
      "Res": 8451,
      "hold": 8452,
      "Des": 8453,
      "First": 8454,
      "Sun": 8455,
      "##ari": 8456,
      "inh": 8457,
      "Prize": 8458,
      "Turk": 8459,
      "execut": 8460,
      "##ments": 8461,
      "relig": 8462,
      "tour": 8463,
      "Records": 8464,
      "##eck": 8465,
      "liter": 8466,
      "style": 8467,
      "##imate": 8468,
      "gold": 8469,
      "Peter": 8470,
      "White": 8471,
      "##tar": 8472,
      "Empire": 8473,
      "Win": 8474,
      "Day": 8475,
      "mater": 8476,
      "running": 8477,
      "##iation": 8478,
      "better": 8479,
      "##rown": 8480,
      "Council": 8481,
      "NHL": 8482,
      "production": 8483,
      "##mb": 8484,
      "##atives": 8485,
      "##ulf": 8486,
      "serving": 8487,
      "UK": 8488,
      "community": 8489,
      "awarded": 8490,
      "##raw": 8491,
      "##ength": 8492,
      "Ire": 8493,
      "Sir": 8494,
      "Catholic": 8495,
      "fact": 8496,
      "##sy": 8497,
      "applic": 8498,
      "genus": 8499,
      "ident": 8500,
      "Rob": 8501,
      "##ano": 8502,
      "Green": 8503,
      "designed": 8504,
      "caused": 8505,
      "##cast": 8506,
      "To": 8507,
      "##ned": 8508,
      "earl": 8509,
      "Joseph": 8510,
      "studied": 8511,
      "performan": 8512,
      "ball": 8513,
      "round": 8514,
      "##eball": 8515,
      "others": 8516,
      "Ireland": 8517,
      "look": 8518,
      "##ways": 8519,
      "position": 8520,
      "gradu": 8521,
      "document": 8522,
      "fire": 8523,
      "source": 8524,
      "1967": 8525,
      "Swedish": 8526,
      "pri": 8527,
      "pack": 8528,
      "lost": 8529,
      "believ": 8530,
      "Many": 8531,
      "Kn": 8532,
      "1970": 8533,
      "##read": 8534,
      "..": 8535,
      "Tor": 8536,
      "##thlet": 8537,
      "Football": 8538,
      "Mag": 8539,
      "##ances": 8540,
      "Center": 8541,
      "TV": 8542,
      "Ko": 8543,
      "##ware": 8544,
      "##ators": 8545,
      "##etic": 8546,
      "##oma": 8547,
      "priv": 8548,
      "##rial": 8549,
      "range": 8550,
      "hit": 8551,
      "specific": 8552,
      "Northern": 8553,
      "##press": 8554,
      "##iding": 8555,
      "let": 8556,
      "sn": 8557,
      "You": 8558,
      "##ique": 8559,
      "##ston": 8560,
      "##ais": 8561,
      "screen": 8562,
      "bar": 8563,
      "##mit": 8564,
      "Fil": 8565,
      "week": 8566,
      "months": 8567,
      "plan": 8568,
      "Fin": 8569,
      "Mac": 8570,
      "birth": 8571,
      "##western": 8572,
      "Latin": 8573,
      "Dutch": 8574,
      "Sing": 8575,
      "##rian": 8576,
      "##cher": 8577,
      "Secretary": 8578,
      "Scot": 8579,
      "##apt": 8580,
      "Ag": 8581,
      "Instit": 8582,
      "##iers": 8583,
      "Wales": 8584,
      "returned": 8585,
      "gave": 8586,
      "race": 8587,
      "ship": 8588,
      "names": 8589,
      "##ban": 8590,
      "described": 8591,
      "Virginia": 8592,
      "Mic": 8593,
      "network": 8594,
      "##urt": 8595,
      "log": 8596,
      "##jects": 8597,
      "scient": 8598,
      "territ": 8599,
      "sports": 8600,
      "phil": 8601,
      "##iqu": 8602,
      "Pac": 8603,
      "guitar": 8604,
      "journ": 8605,
      "##ato": 8606,
      "deg": 8607,
      "1978": 8608,
      "Switzer": 8609,
      "##ha": 8610,
      "once": 8611,
      "cert": 8612,
      "##ya": 8613,
      "##ellow": 8614,
      "action": 8615,
      "##ergy": 8616,
      "##uf": 8617,
      "Court": 8618,
      "bird": 8619,
      "##olf": 8620,
      "Association": 8621,
      "Hockey": 8622,
      "##bon": 8623,
      "computer": 8624,
      "Switzerland": 8625,
      "##ply": 8626,
      "##annel": 8627,
      "chemical": 8628,
      "Er": 8629,
      "environment": 8630,
      "condu": 8631,
      "situ": 8632,
      "uses": 8633,
      "##iec": 8634,
      "fish": 8635,
      "least": 8636,
      "##ruction": 8637,
      "##aries": 8638,
      "change": 8639,
      "1968": 8640,
      "information": 8641,
      "put": 8642,
      "##rey": 8643,
      "##wards": 8644,
      "##cle": 8645,
      "##aign": 8646,
      "cross": 8647,
      "length": 8648,
      "181": 8649,
      "WWE": 8650,
      "##ala": 8651,
      "Mel": 8652,
      "##rael": 8653,
      "tropical": 8654,
      "multip": 8655,
      "##ivid": 8656,
      "##off": 8657,
      "changed": 8658,
      "##bour": 8659,
      "real": 8660,
      "##ein": 8661,
      "park": 8662,
      "disease": 8663,
      "tre": 8664,
      "bur": 8665,
      "Arab": 8666,
      "suff": 8667,
      "mix": 8668,
      "Since": 8669,
      "forces": 8670,
      "Penn": 8671,
      "simply": 8672,
      "female": 8673,
      "##eland": 8674,
      "conv": 8675,
      "sequ": 8676,
      "Columb": 8677,
      "cast": 8678,
      "creat": 8679,
      "function": 8680,
      "appointed": 8681,
      "Municipality": 8682,
      "##istry": 8683,
      "##atter": 8684,
      "ide": 8685,
      "##eror": 8686,
      "##ification": 8687,
      "fur": 8688,
      "related": 8689,
      "voice": 8690,
      "rap": 8691,
      "squ": 8692,
      "storm": 8693,
      "##anton": 8694,
      "hard": 8695,
      "proble": 8696,
      "research": 8697,
      "##ought": 8698,
      "Pet": 8699,
      "##itive": 8700,
      "Star": 8701,
      "sil": 8702,
      "Israel": 8703,
      "Ha": 8704,
      "pred": 8705,
      "movies": 8706,
      "##ested": 8707,
      "1964": 8708,
      "Bern": 8709,
      "##ising": 8710,
      "ground": 8711,
      "Ma": 8712,
      "poet": 8713,
      "thought": 8714,
      "features": 8715,
      "Gar": 8716,
      "##ores": 8717,
      "Disney": 8718,
      "groups": 8719,
      "##less": 8720,
      "road": 8721,
      "##ros": 8722,
      "##atch": 8723,
      "almost": 8724,
      "songs": 8725,
      "movement": 8726,
      "Asia": 8727,
      "approx": 8728,
      "material": 8729,
      "press": 8730,
      "winning": 8731,
      "reached": 8732,
      "claim": 8733,
      "teams": 8734,
      "generally": 8735,
      "archit": 8736,
      "pur": 8737,
      "surr": 8738,
      "musical": 8739,
      "Republican": 8740,
      "Martin": 8741,
      "##ention": 8742,
      "manager": 8743,
      "##adium": 8744,
      "##aged": 8745,
      "product": 8746,
      "Nob": 8747,
      "grand": 8748,
      "hor": 8749,
      "events": 8750,
      "Tel": 8751,
      "##oom": 8752,
      "##ps": 8753,
      "Arg": 8754,
      "##asy": 8755,
      "##ential": 8756,
      "Atlantic": 8757,
      "Av": 8758,
      "church": 8759,
      "182": 8760,
      "size": 8761,
      "Province": 8762,
      "however": 8763,
      "individ": 8764,
      "plants": 8765,
      "Awards": 8766,
      "Music": 8767,
      "lab": 8768,
      "officially": 8769,
      "##arily": 8770,
      "##tic": 8771,
      "##band": 8772,
      "##aps": 8773,
      "Mu": 8774,
      "pract": 8775,
      "access": 8776,
      "Ham": 8777,
      "Haut": 8778,
      "##self": 8779,
      "##II": 8780,
      "##specially": 8781,
      "##ector": 8782,
      "##serv": 8783,
      "##craft": 8784,
      "##NA": 8785,
      "attem": 8786,
      "metal": 8787,
      "discovered": 8788,
      "seen": 8789,
      "composer": 8790,
      "sound": 8791,
      "##uan": 8792,
      "##itte": 8793,
      "God": 8794,
      "viol": 8795,
      "Census": 8796,
      "##andy": 8797,
      "treat": 8798,
      "especially": 8799,
      "##acher": 8800,
      "##hemat": 8801,
      "Represent": 8802,
      "temper": 8803,
      "Hot": 8804,
      "sout": 8805,
      "Russia": 8806,
      "taken": 8807,
      "1966": 8808,
      "transl": 8809,
      ">)": 8810,
      "##tainment": 8811,
      "et": 8812,
      "##eds": 8813,
      "##duced": 8814,
      "1965": 8815,
      "Queen": 8816,
      "consist": 8817,
      "laun": 8818,
      "ancient": 8819,
      "pain": 8820,
      "##lam": 8821,
      "Oh": 8822,
      "##erous": 8823,
      "fig": 8824,
      "whose": 8825,
      "library": 8826,
      "Olympics": 8827,
      "##eep": 8828,
      "##ita": 8829,
      "##ils": 8830,
      "Korean": 8831,
      "mainly": 8832,
      "replaced": 8833,
      "Ol": 8834,
      "##reg": 8835,
      "##emor": 8836,
      "##opp": 8837,
      "Parliament": 8838,
      "##lev": 8839,
      "1945": 8840,
      "Congress": 8841,
      "Wrest": 8842,
      "throughout": 8843,
      "##isl": 8844,
      "react": 8845,
      "shows": 8846,
      "180": 8847,
      "sqmi": 8848,
      "instead": 8849,
      "oldest": 8850,
      "Year": 8851,
      "native": 8852,
      "People": 8853,
      "##ites": 8854,
      "1963": 8855,
      "centre": 8856,
      "##azine": 8857,
      "##used": 8858,
      "##ologist": 8859,
      "##itch": 8860,
      "relations": 8861,
      "meas": 8862,
      "##odes": 8863,
      "clos": 8864,
      "1961": 8865,
      "Battle": 8866,
      "Cast": 8867,
      "ve": 8868,
      "Old": 8869,
      "##ye": 8870,
      "##quently": 8871,
      "##ersey": 8872,
      "##ador": 8873,
      "except": 8874,
      "value": 8875,
      "##abeth": 8876,
      "Company": 8877,
      "Haw": 8878,
      "Division": 8879,
      "capt": 8880,
      "Cr": 8881,
      "never": 8882,
      "##hol": 8883,
      "##iller": 8884,
      "far": 8885,
      "fall": 8886,
      "constit": 8887,
      "associ": 8888,
      "500": 8889,
      "Ev": 8890,
      "##pper": 8891,
      "Lee": 8892,
      "##play": 8893,
      "Jer": 8894,
      "Mos": 8895,
      "Off": 8896,
      "##ensive": 8897,
      "cities": 8898,
      "close": 8899,
      "leading": 8900,
      "So": 8901,
      "1947": 8902,
      "1948": 8903,
      "III": 8904,
      "##inct": 8905,
      "rank": 8906,
      "##reme": 8907,
      "contains": 8908,
      "division": 8909,
      "soft": 8910,
      "##airs": 8911,
      "1956": 8912,
      "##lor": 8913,
      "##erb": 8914,
      "files": 8915,
      "Enter": 8916,
      "border": 8917,
      "via": 8918,
      "lic": 8919,
      "Cat": 8920,
      "Land": 8921,
      "##ams": 8922,
      "Cor": 8923,
      "woman": 8924,
      "##estival": 8925,
      "Rail": 8926,
      "Pacific": 8927,
      "App": 8928,
      "Fred": 8929,
      "Ant": 8930,
      "##ada": 8931,
      "Play": 8932,
      "imm": 8933,
      "cover": 8934,
      "sister": 8935,
      "##gl": 8936,
      "##load": 8937,
      "Irish": 8938,
      "##za": 8939,
      "##iel": 8940,
      "approximately": 8941,
      "Boy": 8942,
      "commer": 8943,
      "Scotland": 8944,
      "##ration": 8945,
      "languages": 8946,
      "##de": 8947,
      "##idence": 8948,
      "entire": 8949,
      "While": 8950,
      "Georg": 8951,
      "##incip": 8952,
      "seasons": 8953,
      "independent": 8954,
      "arg": 8955,
      "mountain": 8956,
      "night": 8957,
      "Street": 8958,
      "1960": 8959,
      "##ament": 8960,
      "destroy": 8961,
      "60": 8962,
      "away": 8963,
      "Cons": 8964,
      "pay": 8965,
      "Carolina": 8966,
      "Smith": 8967,
      "aver": 8968,
      "rights": 8969,
      "1944": 8970,
      "front": 8971,
      "##arch": 8972,
      "ended": 8973,
      "Je": 8974,
      "##etball": 8975,
      "Stan": 8976,
      "##ective": 8977,
      "##rant": 8978,
      "##awa": 8979,
      "##iest": 8980,
      "Just": 8981,
      "below": 8982,
      "Va": 8983,
      "Although": 8984,
      "ran": 8985,
      "case": 8986,
      "##ateg": 8987,
      "Fre": 8988,
      "##win": 8989,
      "Ok": 8990,
      "force": 8991,
      "Britain": 8992,
      "##atre": 8993,
      "##ements": 8994,
      "raised": 8995,
      "writing": 8996,
      "autom": 8997,
      "##iting": 8998,
      "enc": 8999,
      "box": 9000,
      "continued": 9001,
      "cel": 9002,
      "comes": 9003,
      "Wood": 9004,
      "##iro": 9005,
      "review": 9006,
      "##bre": 9007,
      "##ifican": 9008,
      "##FA": 9009,
      "##sych": 9010,
      "##back": 9011,
      "Inter": 9012,
      "##oints": 9013,
      "rout": 9014,
      "voc": 9015,
      "Institute": 9016,
      "hurricane": 9017,
      "##wide": 9018,
      "##ences": 9019,
      "Stev": 9020,
      "Den": 9021,
      "starring": 9022,
      "animals": 9023,
      "##oud": 9024,
      "types": 9025,
      "fifth": 9026,
      "prob": 9027,
      "parents": 9028,
      "animated": 9029,
      "here": 9030,
      "owned": 9031,
      "Ro": 9032,
      "##yo": 9033,
      "parish": 9034,
      "phot": 9035,
      "##ittee": 9036,
      ">:": 9037,
      "##heastern": 9038,
      "##opher": 9039,
      "campaign": 9040,
      "got": 9041,
      "reported": 9042,
      "1962": 9043,
      "##ini": 9044,
      "1949": 9045,
      "Prince": 9046,
      "followed": 9047,
      "space": 9048,
      "surface": 9049,
      "services": 9050,
      "##ylvan": 9051,
      "##ols": 9052,
      "systems": 9053,
      "Sil": 9054,
      "college": 9055,
      "inhabit": 9056,
      "##ference": 9057,
      "private": 9058,
      "##uration": 9059,
      "Sev": 9060,
      "Jackson": 9061,
      "Bang": 9062,
      "##inet": 9063,
      "##quar": 9064,
      "179": 9065,
      "significan": 9066,
      "##aching": 9067,
      "formerly": 9068,
      "##hood": 9069,
      "##ker": 9070,
      "Ob": 9071,
      "1957": 9072,
      "Zeal": 9073,
      "athlet": 9074,
      "Arch": 9075,
      "path": 9076,
      "##elled": 9077,
      "outside": 9078,
      "35": 9079,
      "du": 9080,
      "1946": 9081,
      "##rated": 9082,
      "Wind": 9083,
      "fac": 9084,
      "##ems": 9085,
      "vir": 9086,
      "Ann": 9087,
      "##igan": 9088,
      "##ette": 9089,
      "32": 9090,
      "##ules": 9091,
      "added": 9092,
      "py": 9093,
      "##ko": 9094,
      "##mark": 9095,
      "Zealand": 9096,
      "##ny": 9097,
      "Form": 9098,
      "past": 9099,
      "##udd": 9100,
      "mathemat": 9101,
      "Argent": 9102,
      "##iff": 9103,
      "80": 9104,
      "##hib": 9105,
      "Senate": 9106,
      "Major": 9107,
      "Ocean": 9108,
      "##ola": 9109,
      "Carl": 9110,
      "divided": 9111,
      "cust": 9112,
      "##oke": 9113,
      "able": 9114,
      "1950": 9115,
      "himself": 9116,
      "##por": 9117,
      "sem": 9118,
      "##oor": 9119,
      "##ylvania": 9120,
      "##ray": 9121,
      "...": 9122,
      "Ohio": 9123,
      "Lu": 9124,
      "1952": 9125,
      "depend": 9126,
      ").": 9127,
      "19th": 9128,
      "sugg": 9129,
      "But": 9130,
      "##ropol": 9131,
      "Brazilian": 9132,
      "nort": 9133,
      "##rug": 9134,
      "prison": 9135,
      "further": 9136,
      "##omes": 9137,
      "##ills": 9138,
      "symb": 9139,
      "color": 9140,
      "lay": 9141,
      "Ros": 9142,
      "standard": 9143,
      "##ima": 9144,
      "Eliz": 9145,
      "aircraft": 9146,
      "changes": 9147,
      "##igned": 9148,
      "Sur": 9149,
      "mach": 9150,
      "er": 9151,
      "wide": 9152,
      "multiple": 9153,
      "Mark": 9154,
      "##uit": 9155,
      "##uments": 9156,
      "commerc": 9157,
      "bo": 9158,
      "Fer": 9159,
      "1959": 9160,
      "##ampion": 9161,
      "1942": 9162,
      "Other": 9163,
      "Billboard": 9164,
      "Jewish": 9165,
      "degree": 9166,
      "##ys": 9167,
      "Club": 9168,
      "##ctions": 9169,
      "##ume": 9170,
      "ast": 9171,
      "##omm": 9172,
      "server": 9173,
      "particip": 9174,
      "Brown": 9175,
      "directory": 9176,
      "Southern": 9177,
      "text": 9178,
      "##owers": 9179,
      "market": 9180,
      "Albert": 9181,
      "##can": 9182,
      "##etts": 9183,
      "##agon": 9184,
      "grew": 9185,
      "battle": 9186,
      "##ios": 9187,
      "today": 9188,
      "Luc": 9189,
      "##ura": 9190,
      "##ires": 9191,
      "1930": 9192,
      "neigh": 9193,
      "philos": 9194,
      "Penns": 9195,
      "##onne": 9196,
      "average": 9197,
      "Cro": 9198,
      "##mon": 9199,
      "##ells": 9200,
      "block": 9201,
      "Nobel": 9202,
      "miles": 9203,
      "plug": 9204,
      "vict": 9205,
      "##yer": 9206,
      "branch": 9207,
      "dia": 9208,
      "performance": 9209,
      "1954": 9210,
      "1939": 9211,
      "court": 9212,
      "##idae": 9213,
      "##mar": 9214,
      "introduced": 9215,
      "##illa": 9216,
      "previously": 9217,
      "active": 9218,
      "girl": 9219,
      "respons": 9220,
      "##ta": 9221,
      "##chiev": 9222,
      "##chest": 9223,
      "regular": 9224,
      "surround": 9225,
      "altern": 9226,
      "addition": 9227,
      "inhabitants": 9228,
      "hot": 9229,
      "api": 9230,
      "instr": 9231,
      "##iana": 9232,
      "beginning": 9233,
      "tra": 9234,
      "##fecture": 9235,
      "founder": 9236,
      "##ground": 9237,
      "Victoria": 9238,
      "20th": 9239,
      "##ridge": 9240,
      "1934": 9241,
      "ly": 9242,
      "dig": 9243,
      "Pennsylvania": 9244,
      "##ronic": 9245,
      "characters": 9246,
      "Hon": 9247,
      "canton": 9248,
      "##unicipal": 9249,
      "Ap": 9250,
      "widely": 9251,
      "cour": 9252,
      "km2": 9253,
      "Scottish": 9254,
      "36": 9255,
      "pen": 9256,
      "nominated": 9257,
      "##ography": 9258,
      "1958": 9259,
      "McC": 9260,
      "thr": 9261,
      "wood": 9262,
      "chart": 9263,
      "##ynast": 9264,
      "theory": 9265,
      "1936": 9266,
      "1941": 9267,
      "Jean": 9268,
      "cand": 9269,
      "lear": 9270,
      "1929": 9271,
      "feature": 9272,
      "Airport": 9273,
      "Hel": 9274,
      "episode": 9275,
      "Jersey": 9276,
      "fiction": 9277,
      "##ishop": 9278,
      "Cont": 9279,
      "##oted": 9280,
      "administrative": 9281,
      "Trans": 9282,
      "sm": 9283,
      "##achus": 9284,
      "Os": 9285,
      "dou": 9286,
      "players": 9287,
      "1940": 9288,
      "##be": 9289,
      "##iment": 9290,
      "##rupt": 9291,
      "Count": 9292,
      "##oms": 9293,
      "Stud": 9294,
      "police": 9295,
      "intern": 9296,
      "##ceed": 9297,
      "becoming": 9298,
      "Bor": 9299,
      "piec": 9300,
      "colon": 9301,
      "Cam": 9302,
      "flag": 9303,
      "paint": 9304,
      "1955": 9305,
      "makes": 9306,
      "##ava": 9307,
      "Under": 9308,
      "Rad": 9309,
      "Museum": 9310,
      "##stein": 9311,
      "Eastern": 9312,
      "##elle": 9313,
      "forms": 9314,
      "table": 9315,
      "blood": 9316,
      "Elizabeth": 9317,
      "45": 9318,
      "traditional": 9319,
      "bank": 9320,
      "user": 9321,
      "Love": 9322,
      "sen": 9323,
      "cur": 9324,
      "##hing": 9325,
      "simple": 9326,
      "1928": 9327,
      "Big": 9328,
      "Born": 9329,
      "contract": 9330,
      "significant": 9331,
      "Tim": 9332,
      "heavy": 9333,
      "1960s": 9334,
      "students": 9335,
      "Ca": 9336,
      "step": 9337,
      "##anned": 9338,
      "ring": 9339,
      "##zo": 9340,
      "1933": 9341,
      "##embly": 9342,
      "##enced": 9343,
      "Commun": 9344,
      "Massachus": 9345,
      "islands": 9346,
      "Islands": 9347,
      "larger": 9348,
      "lower": 9349,
      "Belgian": 9350,
      "##ouri": 9351,
      "##rought": 9352,
      "Valley": 9353,
      "possible": 9354,
      "Massachusetts": 9355,
      "##ero": 9356,
      "minor": 9357,
      "##inson": 9358,
      "newsp": 9359,
      "professor": 9360,
      "decl": 9361,
      "Iran": 9362,
      "##iated": 9363,
      "Their": 9364,
      "Hist": 9365,
      "Conn": 9366,
      "observ": 9367,
      "Polish": 9368,
      "boy": 9369,
      "##ourg": 9370,
      "Department": 9371,
      "Dar": 9372,
      "Kent": 9373,
      "##utes": 9374,
      "pot": 9375,
      "cho": 9376,
      "Civil": 9377,
      "##ua": 9378,
      "1943": 9379,
      "application": 9380,
      "##ella": 9381,
      "cycl": 9382,
      "lin": 9383,
      "Nether": 9384,
      "championship": 9385,
      "itself": 9386,
      "energy": 9387,
      "nine": 9388,
      "##nd": 9389,
      "nuc": 9390,
      "army": 9391,
      "##iences": 9392,
      "Korea": 9393,
      "##umn": 9394,
      "Bost": 9395,
      "era": 9396,
      "##to": 9397,
      "##ym": 9398,
      "terms": 9399,
      "##ionally": 9400,
      "1935": 9401,
      "90": 9402,
      "Columbia": 9403,
      "##cent": 9404,
      "##arian": 9405,
      "##ali": 9406,
      "##lim": 9407,
      "Alexander": 9408,
      "upon": 9409,
      "quick": 9410,
      "occup": 9411,
      "magazine": 9412,
      "middle": 9413,
      "situated": 9414,
      "Camp": 9415,
      "70": 9416,
      "Mod": 9417,
      "Golden": 9418,
      "##riage": 9419,
      "##era": 9420,
      "1951": 9421,
      "Bet": 9422,
      "Young": 9423,
      "fight": 9424,
      "league": 9425,
      "Way": 9426,
      "consists": 9427,
      "1970s": 9428,
      "##ca": 9429,
      "##leg": 9430,
      "dom": 9431,
      "attended": 9432,
      "base": 9433,
      "whom": 9434,
      "Two": 9435,
      "##use": 9436,
      "contribut": 9437,
      "##onic": 9438,
      "##onia": 9439,
      "##aters": 9440,
      "Second": 9441,
      "Dou": 9442,
      "cells": 9443,
      "##teen": 9444,
      "coach": 9445,
      "ox": 9446,
      "##ingu": 9447,
      "##ricts": 9448,
      "orb": 9449,
      "1953": 9450,
      "##ift": 9451,
      "points": 9452,
      "attempt": 9453,
      "75": 9454,
      "aud": 9455,
      "Rome": 9456,
      "god": 9457,
      "Boston": 9458,
      "##tario": 9459,
      "##enty": 9460,
      "meet": 9461,
      "structure": 9462,
      "Kenn": 9463,
      "adop": 9464,
      "dead": 9465,
      "##ufact": 9466,
      "Entertainment": 9467,
      "##ression": 9468,
      "##ih": 9469,
      "##icated": 9470,
      "##endo": 9471,
      "##ondiss": 9472,
      "Wall": 9473,
      "cut": 9474,
      "##mond": 9475,
      "Ontario": 9476,
      "1926": 9477,
      "##ropolitan": 9478,
      "Pan": 9479,
      "##oid": 9480,
      "##mally": 9481,
      "Serv": 9482,
      "unit": 9483,
      "break": 9484,
      "Netherlands": 9485,
      "Islam": 9486,
      "candid": 9487,
      "supported": 9488,
      "sch": 9489,
      "federal": 9490,
      "rather": 9491,
      "princip": 9492,
      "Show": 9493,
      "mur": 9494,
      "##head": 9495,
      "move": 9496,
      "primary": 9497,
      "Sol": 9498,
      "spent": 9499,
      "Jim": 9500,
      "journalist": 9501,
      "Pers": 9502,
      "hus": 9503,
      "Alp": 9504,
      "Chief": 9505,
      "date": 9506,
      "nick": 9507,
      "sat": 9508,
      "smaller": 9509,
      "1931": 9510,
      "Fort": 9511,
      "express": 9512,
      "Philipp": 9513,
      "Series": 9514,
      "trib": 9515,
      "arrondiss": 9516,
      "takes": 9517,
      "##AS": 9518,
      "##airman": 9519,
      "purp": 9520,
      "##aven": 9521,
      "primarily": 9522,
      "Jose": 9523,
      "##ises": 9524,
      "Pen": 9525,
      "##iger": 9526,
      "inj": 9527,
      "chief": 9528,
      "Poland": 9529,
      "1932": 9530,
      "hous": 9531,
      "##20": 9532,
      "Class": 9533,
      "achiev": 9534,
      "organization": 9535,
      "certain": 9536,
      "lo": 9537,
      "inside": 9538,
      "regard": 9539,
      "famil": 9540,
      "compound": 9541,
      "Fox": 9542,
      "commercial": 9543,
      "Anton": 9544,
      "##ults": 9545,
      "foc": 9546,
      "opera": 9547,
      "Wrestling": 9548,
      "Duke": 9549,
      "js": 9550,
      "mess": 9551,
      "##ograph": 9552,
      "starting": 9553,
      "Dire": 9554,
      "Bad": 9555,
      "health": 9556,
      "composed": 9557,
      "job": 9558,
      "regions": 9559,
      "Gal": 9560,
      "lake": 9561,
      "remained": 9562,
      "eventually": 9563,
      "custom": 9564,
      "Song": 9565,
      "##stand": 9566,
      "contain": 9567,
      "husband": 9568,
      "peak": 9569,
      "provide": 9570,
      "##inger": 9571,
      "media": 9572,
      "1937": 9573,
      "##adesh": 9574,
      "##ynasty": 9575,
      "municipal": 9576,
      "##ections": 9577,
      "Liber": 9578,
      "keep": 9579,
      "1980s": 9580,
      "electric": 9581,
      "cit": 9582,
      "Maria": 9583,
      "Leg": 9584,
      "medal": 9585,
      "officer": 9586,
      "required": 9587,
      "##aval": 9588,
      "minister": 9589,
      "psych": 9590,
      "script": 9591,
      "districts": 9592,
      "comedian": 9593,
      "##ken": 9594,
      "##och": 9595,
      "Group": 9596,
      "done": 9597,
      "celebr": 9598,
      "coup": 9599,
      "1922": 9600,
      "estim": 9601,
      "178": 9602,
      "Sk": 9603,
      "1925": 9604,
      "##echan": 9605,
      "education": 9606,
      "##par": 9607,
      "##atively": 9608,
      "worldwide": 9609,
      "Imp": 9610,
      "mol": 9611,
      "Force": 9612,
      "associated": 9613,
      "Pas": 9614,
      "##ulation": 9615,
      "1927": 9616,
      "Es": 9617,
      "insp": 9618,
      "##cted": 9619,
      "1938": 9620,
      "##eman": 9621,
      "##ela": 9622,
      "finished": 9623,
      "Bob": 9624,
      "little": 9625,
      "Committee": 9626,
      "Hung": 9627,
      "hospital": 9628,
      "Tw": 9629,
      "hyd": 9630,
      "lives": 9631,
      "reb": 9632,
      "Missouri": 9633,
      "Fe": 9634,
      "words": 9635,
      "##ias": 9636,
      "competed": 9637,
      "##ened": 9638,
      "##iano": 9639,
      "helped": 9640,
      "##ras": 9641,
      "Bec": 9642,
      "say": 9643,
      "higher": 9644,
      "##estig": 9645,
      "provides": 9646,
      "Tam": 9647,
      "collection": 9648,
      "Spr": 9649,
      "section": 9650,
      "##ube": 9651,
      "Berlin": 9652,
      "starred": 9653,
      "cause": 9654,
      "improv": 9655,
      "Are": 9656,
      "Charl": 9657,
      "relationship": 9658,
      "jud": 9659,
      "failure": 9660,
      "manufact": 9661,
      "artic": 9662,
      "railway": 9663,
      "Austria": 9664,
      "Francisco": 9665,
      "tree": 9666,
      "##ider": 9667,
      "Portug": 9668,
      "kind": 9669,
      "##alls": 9670,
      "##heim": 9671,
      "presidential": 9672,
      "##wa": 9673,
      "provided": 9674,
      "towns": 9675,
      "Revolution": 9676,
      "cred": 9677,
      "##BA": 9678,
      "green": 9679,
      "##ipl": 9680,
      "1924": 9681,
      "typically": 9682,
      "FI": 9683,
      "tro": 9684,
      "##ja": 9685,
      "implement": 9686,
      "teacher": 9687,
      "Winter": 9688,
      "How": 9689,
      "goal": 9690,
      "##onent": 9691,
      "plat": 9692,
      "Nint": 9693,
      "formula": 9694,
      "##chester": 9695,
      "Tod": 9696,
      "##ectively": 9697,
      "suburb": 9698,
      "Georgia": 9699,
      "##arden": 9700,
      "remov": 9701,
      "broadcast": 9702,
      "univers": 9703,
      "brought": 9704,
      "Est": 9705,
      "Ke": 9706,
      "board": 9707,
      "Cz": 9708,
      "Hum": 9709,
      "Town": 9710,
      "gun": 9711,
      "##uty": 9712,
      "critic": 9713,
      "string": 9714,
      "Mur": 9715,
      "earlier": 9716,
      "##FL": 9717,
      "##anda": 9718,
      "Sar": 9719,
      "earth": 9720,
      "Mot": 9721,
      "##ser": 9722,
      "##overs": 9723,
      "nickn": 9724,
      "##ension": 9725,
      "##CA": 9726,
      "particularly": 9727,
      "Time": 9728,
      "complex": 9729,
      "##omp": 9730,
      "##aph": 9731,
      "money": 9732,
      "rain": 9733,
      "##anks": 9734,
      "separate": 9735,
      "BBC": 9736,
      "come": 9737,
      "ste": 9738,
      "##urity": 9739,
      "##edy": 9740,
      "locality": 9741,
      "prem": 9742,
      "governor": 9743,
      "defeated": 9744,
      "nation": 9745,
      "bridge": 9746,
      "##han": 9747,
      "magn": 9748,
      "##gest": 9749,
      "1923": 9750,
      "earned": 9751,
      "##rd": 9752,
      "diff": 9753,
      "employ": 9754,
      "Nintendo": 9755,
      "accept": 9756,
      "oppos": 9757,
      "Camb": 9758,
      "lik": 9759,
      "##onse": 9760,
      "nar": 9761,
      "ple": 9762,
      "blue": 9763,
      "decided": 9764,
      "Book": 9765,
      "Gram": 9766,
      "##la": 9767,
      "##ache": 9768,
      "acting": 9769,
      "agre": 9770,
      "according": 9771,
      "Loire": 9772,
      "rule": 9773,
      "completed": 9774,
      "arrondissement": 9775,
      "Ott": 9776,
      "Armen": 9777,
      "integ": 9778,
      "Jud": 9779,
      "belong": 9780,
      "farm": 9781,
      "##eks": 9782,
      "know": 9783,
      "medical": 9784,
      "##iy": 9785,
      "##inary": 9786,
      "Line": 9787,
      "Road": 9788,
      "note": 9789,
      "placed": 9790,
      "Michigan": 9791,
      "Ho": 9792,
      "emer": 9793,
      "link": 9794,
      "##BS": 9795,
      "Out": 9796,
      "##asing": 9797,
      "determ": 9798,
      "##vert": 9799,
      "directly": 9800,
      "Emperor": 9801,
      "passed": 9802,
      "##ties": 9803,
      "bask": 9804,
      "behind": 9805,
      "##ederation": 9806,
      "Jac": 9807,
      "##wan": 9808,
      "##inner": 9809,
      "lawyer": 9810,
      "Pun": 9811,
      "analy": 9812,
      "activist": 9813,
      "pick": 9814,
      "majority": 9815,
      "editor": 9816,
      "##abb": 9817,
      "compan": 9818,
      "Santa": 9819,
      "Lab": 9820,
      "##aska": 9821,
      "territory": 9822,
      "Little": 9823,
      "##elly": 9824,
      "##ready": 9825,
      "1990s": 9826,
      "Minn": 9827,
      "climate": 9828,
      "Ron": 9829,
      "##ands": 9830,
      "headquar": 9831,
      "Prem": 9832,
      "nearly": 9833,
      "allowed": 9834,
      "Ray": 9835,
      "animal": 9836,
      "##hold": 9837,
      "defined": 9838,
      "page": 9839,
      "subse": 9840,
      "religious": 9841,
      "believed": 9842,
      "shown": 9843,
      "Fame": 9844,
      "Van": 9845,
      "Women": 9846,
      "##inent": 9847,
      "runs": 9848,
      "assist": 9849,
      "Barb": 9850,
      "##medi": 9851,
      "##right": 9852,
      "##ora": 9853,
      "soon": 9854,
      "bound": 9855,
      "##insula": 9856,
      "configuration": 9857,
      "##adel": 9858,
      "industry": 9859,
      "hours": 9860,
      "##icy": 9861,
      "featured": 9862,
      "##imb": 9863,
      "complic": 9864,
      "##uture": 9865,
      "fast": 9866,
      "Czech": 9867,
      "offer": 9868,
      "##rog": 9869,
      "older": 9870,
      "bac": 9871,
      "##thur": 9872,
      "units": 9873,
      "travel": 9874,
      "executive": 9875,
      "33": 9876,
      "##uff": 9877,
      "##aka": 9878,
      "true": 9879,
      "Before": 9880,
      "mechan": 9881,
      "Government": 9882,
      "##cel": 9883,
      "foot": 9884,
      "try": 9885,
      "location": 9886,
      "Naz": 9887,
      "##isher": 9888,
      "represented": 9889,
      "ago": 9890,
      "Social": 9891,
      "lines": 9892,
      "Corn": 9893,
      "If": 9894,
      "##agan": 9895,
      "##edia": 9896,
      "Mat": 9897,
      "stri": 9898,
      "Step": 9899,
      "##ails": 9900,
      "culture": 9901,
      "summer": 9902,
      "myth": 9903,
      "label": 9904,
      "mem": 9905,
      "download": 9906,
      "Navy": 9907,
      "Arts": 9908,
      "##oto": 9909,
      "Film": 9910,
      "34": 9911,
      "op": 9912,
      "##ronom": 9913,
      "Di": 9914,
      "cost": 9915,
      "give": 9916,
      "rub": 9917,
      "##well": 9918,
      "Representatives": 9919,
      "ang": 9920,
      "##uries": 9921,
      "webs": 9922,
      "behav": 9923,
      "##istic": 9924,
      "controll": 9925,
      "ft": 9926,
      "##ends": 9927,
      "Ox": 9928,
      "##pite": 9929,
      "arrest": 9930,
      "Good": 9931,
      "remains": 9932,
      "occurr": 9933,
      "##chestra": 9934,
      "Found": 9935,
      "foss": 9936,
      "##inces": 9937,
      "birds": 9938,
      "Tok": 9939,
      "numerous": 9940,
      "elements": 9941,
      "kil": 9942,
      "load": 9943,
      "1920": 9944,
      "##iant": 9945,
      "arm": 9946,
      "glob": 9947,
      "recording": 9948,
      "Pict": 9949,
      "Tre": 9950,
      "Society": 9951,
      "Game": 9952,
      "passeng": 9953,
      "Because": 9954,
      "##vention": 9955,
      "things": 9956,
      "Muslim": 9957,
      "64": 9958,
      "Mr": 9959,
      "Alpes": 9960,
      "Long": 9961,
      "Night": 9962,
      "Norm": 9963,
      "##ga": 9964,
      "##icine": 9965,
      "Mario": 9966,
      "buried": 9967,
      "transport": 9968,
      "##ito": 9969,
      "buildings": 9970,
      "schools": 9971,
      "##itude": 9972,
      "##isions": 9973,
      "##ership": 9974,
      "already": 9975,
      "Far": 9976,
      "Syd": 9977,
      "businessman": 9978,
      "problems": 9979,
      "sal": 9980,
      "too": 9981,
      "##vers": 9982,
      "##uses": 9983,
      "Matt": 9984,
      "fund": 9985,
      "entered": 9986,
      "Det": 9987,
      "mic": 9988,
      "marriage": 9989,
      "diss": 9990,
      "Assembly": 9991,
      "tourn": 9992,
      "Univers": 9993,
      "fict": 9994,
      "weeks": 9995,
      "Andrew": 9996,
      "Middle": 9997,
      "Over": 9998,
      "tax": 9999,
      "male": 10000,
      "esc": 10001,
      "draft": 10002,
      "##yan": 10003,
      "Nations": 10004,
      "##ureau": 10005,
      "wrestling": 10006,
      "Dani": 10007,
      "Ta": 10008,
      "varia": 10009,
      "probably": 10010,
      "basketball": 10011,
      "Constit": 10012,
      "eas": 10013,
      "gas": 10014,
      "##ishing": 10015,
      "##onst": 10016,
      "##ophy": 10017,
      "Johnson": 10018,
      "legal": 10019,
      "cer": 10020,
      "##add": 10021,
      "##owa": 10022,
      "graduated": 10023,
      "##aught": 10024,
      "Later": 10025,
      "##gress": 10026,
      "status": 10027,
      "murder": 10028,
      "##tr": 10029,
      "Federal": 10030,
      "##illy": 10031,
      "Oper": 10032,
      "Mexican": 10033,
      "Lady": 10034,
      "Gra": 10035,
      "##of": 10036,
      "##kins": 10037,
      "Profess": 10038,
      "Brook": 10039,
      "##azz": 10040,
      "involved": 10041,
      "complete": 10042,
      "saw": 10043,
      "shot": 10044,
      "individual": 10045,
      "Pope": 10046,
      "deep": 10047,
      "software": 10048,
      "Jeff": 10049,
      "response": 10050,
      "Ari": 10051,
      "abs": 10052,
      "Sup": 10053,
      "Tenn": 10054,
      "##mph": 10055,
      "Leon": 10056,
      "##burgh": 10057,
      "##uz": 10058,
      "##bury": 10059,
      "##otes": 10060,
      "Sat": 10061,
      "Up": 10062,
      "root": 10063,
      "##ml": 10064,
      "Ur": 10065,
      "self": 10066,
      "tradition": 10067,
      "Life": 10068,
      "Ell": 10069,
      "##lied": 10070,
      "Common": 10071,
      "Sydney": 10072,
      "Str": 10073,
      "##osit": 10074,
      "##ribution": 10075,
      "##hedral": 10076,
      "request": 10077,
      "invent": 10078,
      "Formula": 10079,
      "Tem": 10080,
      "egg": 10081,
      "ask": 10082,
      "trade": 10083,
      "Hu": 10084,
      "tal": 10085,
      "Def": 10086,
      "##wer": 10087,
      "Hind": 10088,
      "variety": 10089,
      "molec": 10090,
      "train": 10091,
      "involv": 10092,
      "Dev": 10093,
      "##mir": 10094,
      "Hor": 10095,
      "##lying": 10096,
      "##endar": 10097,
      "northwest": 10098,
      "fictional": 10099,
      "historical": 10100,
      "177": 10101,
      "Rog": 10102,
      "cases": 10103,
      "Cub": 10104,
      "hap": 10105,
      "##ele": 10106,
      "Balt": 10107,
      "Jun": 10108,
      "cm": 10109,
      "places": 10110,
      "wrestler": 10111,
      "studies": 10112,
      "Jones": 10113,
      "package": 10114,
      "Hauts": 10115,
      "Sax": 10116,
      "annual": 10117,
      "##nes": 10118,
      "##icted": 10119,
      "##orporation": 10120,
      "synt": 10121,
      "coun": 10122,
      "##oe": 10123,
      "##rain": 10124,
      "numbers": 10125,
      "baseball": 10126,
      "sixth": 10127,
      "##overy": 10128,
      "##erve": 10129,
      "allows": 10130,
      "Minnes": 10131,
      "##lah": 10132,
      "##erial": 10133,
      "longer": 10134,
      "vehic": 10135,
      "Rod": 10136,
      "##aring": 10137,
      "stra": 10138,
      "Marie": 10139,
      "hosted": 10140,
      "destroyed": 10141,
      "fav": 10142,
      "Tri": 10143,
      "bass": 10144,
      "den": 10145,
      "symbol": 10146,
      "newspaper": 10147,
      "Rom": 10148,
      "Minnesota": 10149,
      "gal": 10150,
      "##sis": 10151,
      "##itage": 10152,
      "Lord": 10153,
      "solo": 10154,
      "machine": 10155,
      "estimated": 10156,
      "upd": 10157,
      "damage": 10158,
      "Les": 10159,
      "##change": 10160,
      "instit": 10161,
      "greatest": 10162,
      "image": 10163,
      "figure": 10164,
      "platform": 10165,
      "aired": 10166,
      "check": 10167,
      "Top": 10168,
      "##mas": 10169,
      "Bre": 10170,
      "dat": 10171,
      "museum": 10172,
      "families": 10173,
      "##gency": 10174,
      "Inc": 10175,
      "launched": 10176,
      "##jan": 10177,
      "stadium": 10178,
      "plugin": 10179,
      "1921": 10180,
      "pil": 10181,
      "albums": 10182,
      "##amber": 10183,
      "300": 10184,
      "always": 10185,
      "resident": 10186,
      "##undred": 10187,
      "##ecess": 10188,
      "spok": 10189,
      "adopted": 10190,
      "longest": 10191,
      "competition": 10192,
      "Stanley": 10193,
      "Bangl": 10194,
      "##thon": 10195,
      "##uten": 10196,
      "##rison": 10197,
      "Bureau": 10198,
      "Austrian": 10199,
      "oil": 10200,
      "distance": 10201,
      "friends": 10202,
      "reviews": 10203,
      "Sand": 10204,
      "Commission": 10205,
      "Broad": 10206,
      "personal": 10207,
      "property": 10208,
      "##hew": 10209,
      "Yonne": 10210,
      "sum": 10211,
      "##ging": 10212,
      "copies": 10213,
      "Bru": 10214,
      "write": 10215,
      "Gh": 10216,
      "Alf": 10217,
      "Williams": 10218,
      "Oklah": 10219,
      "##ve": 10220,
      "65": 10221,
      "bomb": 10222,
      "Color": 10223,
      "construct": 10224,
      "troops": 10225,
      "miss": 10226,
      "##roll": 10227,
      "Abb": 10228,
      "card": 10229,
      "node": 10230,
      "rivers": 10231,
      "bor": 10232,
      "##ii": 10233,
      "Chile": 10234,
      "pers": 10235,
      "##aches": 10236,
      "##unn": 10237,
      "##rief": 10238,
      "That": 10239,
      "airport": 10240,
      "lif": 10241,
      "refers": 10242,
      "##orporated": 10243,
      "##porary": 10244,
      "Oklahoma": 10245,
      "##ability": 10246,
      "account": 10247,
      "schol": 10248,
      "##adelph": 10249,
      "##amin": 10250,
      "confl": 10251,
      "Hospital": 10252,
      "##jo": 10253,
      "installed": 10254,
      "##oper": 10255,
      "Coast": 10256,
      "##war": 10257,
      "Prot": 10258,
      "guitarist": 10259,
      "Kong": 10260,
      "eth": 10261,
      "Philadelph": 10262,
      "Holly": 10263,
      "citiz": 10264,
      "Swiss": 10265,
      "Jane": 10266,
      "emb": 10267,
      "Lie": 10268,
      "Nic": 10269,
      "vote": 10270,
      "Arthur": 10271,
      "##orning": 10272,
      "##ously": 10273,
      "Prefecture": 10274,
      "news": 10275,
      "singles": 10276,
      "lies": 10277,
      "##rence": 10278,
      "reign": 10279,
      "Bab": 10280,
      "Philadelphia": 10281,
      "Follow": 10282,
      "System": 10283,
      "##ouch": 10284,
      "##ira": 10285,
      "Senator": 10286,
      "Mississ": 10287,
      "Ball": 10288,
      "Mah": 10289,
      "Uk": 10290,
      "cook": 10291,
      "Channel": 10292,
      "occas": 10293,
      "causes": 10294,
      "##ables": 10295,
      "Conf": 10296,
      "##emorial": 10297,
      "Men": 10298,
      "racing": 10299,
      "##ba": 10300,
      "##ication": 10301,
      "##aki": 10302,
      "southwest": 10303,
      "##anning": 10304,
      "pal": 10305,
[...]
